{
  "version": "1.0",
  "truncation": null,
  "padding": null,
  "added_tokens": [
    {
      "id": 0,
      "content": "<pad>",
      "single_word": false,
      "lstrip": false,
      "rstrip": false,
      "normalized": false,
      "special": true
    },
    {
      "id": 1,
      "content": "<bos>",
      "single_word": false,
      "lstrip": false,
      "rstrip": false,
      "normalized": false,
      "special": true
    },
    {
      "id": 2,
      "content": "<eos>",
      "single_word": false,
      "lstrip": false,
      "rstrip": false,
      "normalized": false,
      "special": true
    },
    {
      "id": 3,
      "content": "<unk>",
      "single_word": false,
      "lstrip": false,
      "rstrip": false,
      "normalized": false,
      "special": true
    }
  ],
  "normalizer": null,
  "pre_tokenizer": {
    "type": "Whitespace"
  },
  "post_processor": null,
  "decoder": null,
  "model": {
    "type": "BPE",
    "dropout": null,
    "unk_token": "<unk>",
    "continuing_subword_prefix": null,
    "end_of_word_suffix": null,
    "fuse_unk": false,
    "byte_fallback": false,
    "ignore_merges": false,
    "vocab": {
      "<pad>": 0,
      "<bos>": 1,
      "<eos>": 2,
      "<unk>": 3,
      "!": 4,
      "\"": 5,
      "#": 6,
      "$": 7,
      "%": 8,
      "&": 9,
      "'": 10,
      "(": 11,
      ")": 12,
      "*": 13,
      "+": 14,
      ",": 15,
      "-": 16,
      ".": 17,
      "/": 18,
      "0": 19,
      "1": 20,
      "2": 21,
      "3": 22,
      "4": 23,
      "5": 24,
      "6": 25,
      "7": 26,
      "8": 27,
      "9": 28,
      ":": 29,
      ";": 30,
      "<": 31,
      "=": 32,
      ">": 33,
      "?": 34,
      "@": 35,
      "A": 36,
      "B": 37,
      "C": 38,
      "D": 39,
      "E": 40,
      "F": 41,
      "G": 42,
      "H": 43,
      "I": 44,
      "J": 45,
      "K": 46,
      "L": 47,
      "M": 48,
      "N": 49,
      "O": 50,
      "P": 51,
      "Q": 52,
      "R": 53,
      "S": 54,
      "T": 55,
      "U": 56,
      "V": 57,
      "W": 58,
      "X": 59,
      "Y": 60,
      "Z": 61,
      "[": 62,
      "\\": 63,
      "]": 64,
      "^": 65,
      "_": 66,
      "`": 67,
      "a": 68,
      "b": 69,
      "c": 70,
      "d": 71,
      "e": 72,
      "f": 73,
      "g": 74,
      "h": 75,
      "i": 76,
      "j": 77,
      "k": 78,
      "l": 79,
      "m": 80,
      "n": 81,
      "o": 82,
      "p": 83,
      "q": 84,
      "r": 85,
      "s": 86,
      "t": 87,
      "u": 88,
      "v": 89,
      "w": 90,
      "x": 91,
      "y": 92,
      "z": 93,
      "{": 94,
      "|": 95,
      "}": 96,
      "~": 97,
      "¡": 98,
      "£": 99,
      "¥": 100,
      "§": 101,
      "°": 102,
      "±": 103,
      "²": 104,
      "³": 105,
      "µ": 106,
      "·": 107,
      "½": 108,
      "Á": 109,
      "Â": 110,
      "Å": 111,
      "Æ": 112,
      "É": 113,
      "Í": 114,
      "Î": 115,
      "Ö": 116,
      "×": 117,
      "Ø": 118,
      "Ú": 119,
      "Ü": 120,
      "Þ": 121,
      "à": 122,
      "á": 123,
      "â": 124,
      "ã": 125,
      "ä": 126,
      "å": 127,
      "æ": 128,
      "ç": 129,
      "è": 130,
      "é": 131,
      "ê": 132,
      "ë": 133,
      "ì": 134,
      "í": 135,
      "î": 136,
      "ñ": 137,
      "ò": 138,
      "ó": 139,
      "ô": 140,
      "ö": 141,
      "ø": 142,
      "ú": 143,
      "û": 144,
      "ü": 145,
      "Ā": 146,
      "ā": 147,
      "Ă": 148,
      "ă": 149,
      "ć": 150,
      "č": 151,
      "Đ": 152,
      "đ": 153,
      "ė": 154,
      "ī": 155,
      "Ł": 156,
      "ł": 157,
      "ń": 158,
      "Ō": 159,
      "ō": 160,
      "œ": 161,
      "ś": 162,
      "ş": 163,
      "š": 164,
      "ū": 165,
      "ų": 166,
      "Ż": 167,
      "ž": 168,
      "ơ": 169,
      "ư": 170,
      "Ș": 171,
      "ș": 172,
      "Ț": 173,
      "ț": 174,
      "ʻ": 175,
      "ʿ": 176,
      "̃": 177,
      "α": 178,
      "β": 179,
      "γ": 180,
      "κ": 181,
      "μ": 182,
      "С": 183,
      "а": 184,
      "в": 185,
      "е": 186,
      "к": 187,
      "о": 188,
      "с": 189,
      "т": 190,
      "я": 191,
      "ا": 192,
      "ح": 193,
      "ص": 194,
      "ل": 195,
      "ن": 196,
      "ه": 197,
      "्": 198,
      "ก": 199,
      "ง": 200,
      "ณ": 201,
      "ต": 202,
      "ม": 203,
      "ย": 204,
      "ร": 205,
      "ล": 206,
      "ั": 207,
      "า": 208,
      "ิ": 209,
      "่": 210,
      "์": 211,
      "გ": 212,
      "დ": 213,
      "ვ": 214,
      "ზ": 215,
      "ი": 216,
      "კ": 217,
      "ო": 218,
      "რ": 219,
      "ს": 220,
      "უ": 221,
      "ც": 222,
      "ძ": 223,
      "წ": 224,
      "ხ": 225,
      "ჯ": 226,
      "჻": 227,
      "ḥ": 228,
      "ṃ": 229,
      "ṅ": 230,
      "ṣ": 231,
      "ṭ": 232,
      "ṯ": 233,
      "ả": 234,
      "ấ": 235,
      "ầ": 236,
      "ắ": 237,
      "ễ": 238,
      "ệ": 239,
      "ị": 240,
      "ớ": 241,
      "ử": 242,
      "ỳ": 243,
      "‑": 244,
      "–": 245,
      "—": 246,
      "‘": 247,
      "’": 248,
      "“": 249,
      "”": 250,
      "„": 251,
      "†": 252,
      "•": 253,
      "…": 254,
      "′": 255,
      "″": 256,
      "⁄": 257,
      "₤": 258,
      "€": 259,
      "₹": 260,
      "™": 261,
      "⅓": 262,
      "⅔": 263,
      "→": 264,
      "−": 265,
      "≤": 266,
      "☉": 267,
      "♭": 268,
      "♯": 269,
      "〈": 270,
      "〉": 271,
      "の": 272,
      "ァ": 273,
      "ア": 274,
      "キ": 275,
      "ス": 276,
      "ッ": 277,
      "ト": 278,
      "プ": 279,
      "ュ": 280,
      "リ": 281,
      "ル": 282,
      "ヴ": 283,
      "・": 284,
      "動": 285,
      "場": 286,
      "大": 287,
      "戦": 288,
      "攻": 289,
      "機": 290,
      "殻": 291,
      "火": 292,
      "礮": 293,
      "空": 294,
      "隊": 295,
      "﻿": 296,
      "～": 297,
      "in": 298,
      "er": 299,
      "th": 300,
      "an": 301,
      "on": 302,
      "es": 303,
      "at": 304,
      "ed": 305,
      "en": 306,
      "al": 307,
      "or": 308,
      "ar": 309,
      "is": 310,
      "the": 311,
      "un": 312,
      "ic": 313,
      "as": 314,
      "ing": 315,
      "re": 316,
      "it": 317,
      "ro": 318,
      "to": 319,
      "le": 320,
      "and": 321,
      "of": 322,
      "ou": 323,
      "st": 324,
      "ion": 325,
      "ch": 326,
      "ly": 327,
      "ac": 328,
      "unk": 329,
      "il": 330,
      "el": 331,
      "ent": 332,
      "om": 333,
      "am": 334,
      "ad": 335,
      "id": 336,
      "ol": 337,
      "he": 338,
      "ur": 339,
      "se": 340,
      "ter": 341,
      "ul": 342,
      "ess": 343,
      "ab": 344,
      "im": 345,
      "tr": 346,
      "iv": 347,
      "ph": 348,
      "for": 349,
      "ig": 350,
      "ag": 351,
      "ir": 352,
      "lo": 353,
      "ec": 354,
      "et": 355,
      "us": 356,
      "ver": 357,
      "em": 358,
      "ation": 359,
      "um": 360,
      "po": 361,
      "con": 362,
      "ot": 363,
      "ap": 364,
      "was": 365,
      "be": 366,
      "wh": 367,
      "per": 368,
      "ist": 369,
      "ce": 370,
      "ut": 371,
      "su": 372,
      "ay": 373,
      "ous": 374,
      "co": 375,
      "est": 376,
      "pro": 377,
      "de": 378,
      "ith": 379,
      "ate": 380,
      "pl": 381,
      "sh": 382,
      "if": 383,
      "The": 384,
      "av": 385,
      "ant": 386,
      "od": 387,
      "ers": 388,
      "iz": 389,
      "pr": 390,
      "qu": 391,
      "ex": 392,
      "ia": 393,
      "ies": 394,
      "ow": 395,
      "und": 396,
      "that": 397,
      "ip": 398,
      "-@": 399,
      "@-@": 400,
      "com": 401,
      "ain": 402,
      "with": 403,
      "og": 404,
      "ere": 405,
      "os": 406,
      "ct": 407,
      "ical": 408,
      "ive": 409,
      "all": 410,
      "by": 411,
      "ity": 412,
      "ra": 413,
      "op": 414,
      "ish": 415,
      "ill": 416,
      "non": 417,
      "rom": 418,
      "ib": 419,
      "ian": 420,
      "sp": 421,
      "ard": 422,
      "ke": 423,
      "oc": 424,
      "ne": 425,
      "ine": 426,
      "te": 427,
      "ial": 428,
      "able": 429,
      "cl": 430,
      "art": 431,
      "ther": 432,
      "end": 433,
      "igh": 434,
      "over": 435,
      "man": 436,
      "his": 437,
      "ud": 438,
      "cr": 439,
      "ated": 440,
      "ast": 441,
      "ell": 442,
      "out": 443,
      "are": 444,
      "pre": 445,
      "ness": 446,
      "our": 447,
      "ich": 448,
      "19": 449,
      "up": 450,
      "ite": 451,
      "ort": 452,
      "mo": 453,
      "ack": 454,
      "ie": 455,
      "ak": 456,
      "ear": 457,
      "ong": 458,
      "ber": 459,
      "one": 460,
      "act": 461,
      "gh": 462,
      "from": 463,
      "ect": 464,
      "ass": 465,
      "ment": 466,
      "ism": 467,
      "str": 468,
      "00": 469,
      "ge": 470,
      "bo": 471,
      "dis": 472,
      "bl": 473,
      "so": 474,
      "br": 475,
      "me": 476,
      "ach": 477,
      "ep": 478,
      "au": 479,
      "res": 480,
      "ld": 481,
      "ind": 482,
      "we": 483,
      "ight": 484,
      "af": 485,
      "ae": 486,
      "In": 487,
      "cor": 488,
      "ide": 489,
      "ary": 490,
      "gr": 491,
      "li": 492,
      "ome": 493,
      "ame": 494,
      "were": 495,
      "wor": 496,
      "my": 497,
      "not": 498,
      "ang": 499,
      "had": 500,
      "hy": 501,
      "age": 502,
      "uc": 503,
      "ure": 504,
      "pe": 505,
      "low": 506,
      "ace": 507,
      "ave": 508,
      "form": 509,
      "which": 510,
      "sc": 511,
      "fl": 512,
      "ob": 513,
      "sub": 514,
      "aw": 515,
      "int": 516,
      "her": 517,
      "par": 518,
      "inter": 519,
      "fr": 520,
      "ser": 521,
      "mon": 522,
      "yl": 523,
      "ath": 524,
      "ence": 525,
      "ens": 526,
      "wo": 527,
      "pt": 528,
      "att": 529,
      "ve": 530,
      "unt": 531,
      "but": 532,
      "mis": 533,
      "its": 534,
      "ful": 535,
      "ious": 536,
      "ally": 537,
      "ok": 538,
      "no": 539,
      "olog": 540,
      "ult": 541,
      "ore": 542,
      "ould": 543,
      "ign": 544,
      "own": 545,
      "ize": 546,
      "ev": 547,
      "pos": 548,
      "ater": 549,
      "cy": 550,
      "ans": 551,
      "ire": 552,
      "ory": 553,
      "ick": 554,
      "sy": 555,
      "fe": 556,
      "ust": 557,
      "ile": 558,
      "land": 559,
      "fer": 560,
      "fir": 561,
      "ition": 562,
      "ue": 563,
      "dr": 564,
      "ied": 565,
      "mer": 566,
      "arr": 567,
      "ating": 568,
      "ma": 569,
      "under": 570,
      "des": 571,
      "ier": 572,
      "der": 573,
      "cent": 574,
      "col": 575,
      "ship": 576,
      "ret": 577,
      "comp": 578,
      "ime": 579,
      "cont": 580,
      "have": 581,
      "port": 582,
      "rit": 583,
      "ree": 584,
      "uct": 585,
      "min": 586,
      "Ch": 587,
      "ular": 588,
      "mat": 589,
      "let": 590,
      "ance": 591,
      "ice": 592,
      "ically": 593,
      "ug": 594,
      "ub": 595,
      "ins": 596,
      "fo": 597,
      "ations": 598,
      "part": 599,
      "oph": 600,
      "ium": 601,
      "raph": 602,
      "air": 603,
      "their": 604,
      "less": 605,
      "eness": 606,
      "ough": 607,
      "ions": 608,
      "ative": 609,
      "200": 610,
      "dec": 611,
      "ings": 612,
      "gen": 613,
      "who": 614,
      "can": 615,
      "ade": 616,
      "ict": 617,
      "work": 618,
      "urn": 619,
      "ck": 620,
      "other": 621,
      "first": 622,
      "old": 623,
      "St": 624,
      "app": 625,
      "ise": 626,
      "gl": 627,
      "son": 628,
      "this": 629,
      "20": 630,
      "ates": 631,
      "red": 632,
      "ors": 633,
      "like": 634,
      "row": 635,
      "ark": 636,
      "play": 637,
      "car": 638,
      "ail": 639,
      "has": 640,
      "ty": 641,
      "go": 642,
      "ix": 643,
      "cre": 644,
      "amp": 645,
      "also": 646,
      "arch": 647,
      "bec": 648,
      "been": 649,
      "off": 650,
      "rop": 651,
      "ys": 652,
      "io": 653,
      "cur": 654,
      "ever": 655,
      "He": 656,
      "ho": 657,
      "led": 658,
      "ily": 659,
      "fin": 660,
      "ase": 661,
      "cer": 662,
      "ized": 663,
      "ros": 664,
      "lect": 665,
      "ved": 666,
      "uring": 667,
      "ility": 668,
      "vel": 669,
      "way": 670,
      "pres": 671,
      "she": 672,
      "rel": 673,
      "after": 674,
      "It": 675,
      "rou": 676,
      "ingly": 677,
      "cal": 678,
      "ann": 679,
      "two": 680,
      "do": 681,
      "reg": 682,
      "ward": 683,
      "they": 684,
      "rem": 685,
      "cond": 686,
      "ff": 687,
      "ics": 688,
      "any": 689,
      "ry": 690,
      "18": 691,
      "ese": 692,
      "ents": 693,
      "ters": 694,
      "Th": 695,
      "gu": 696,
      "itt": 697,
      "him": 698,
      "sem": 699,
      "med": 700,
      "year": 701,
      "ank": 702,
      "az": 703,
      "men": 704,
      "als": 705,
      "ane": 706,
      "vis": 707,
      "cord": 708,
      "ces": 709,
      "les": 710,
      "kn": 711,
      "cap": 712,
      ".@": 713,
      "@.@": 714,
      "uns": 715,
      "char": 716,
      "incl": 717,
      "ons": 718,
      "super": 719,
      "into": 720,
      "ific": 721,
      "fore": 722,
      "ont": 723,
      "ene": 724,
      "rough": 725,
      "iness": 726,
      "time": 727,
      "most": 728,
      "gan": 729,
      "would": 730,
      "ts": 731,
      "ator": 732,
      "ten": 733,
      "comm": 734,
      "ond": 735,
      "some": 736,
      "ink": 737,
      "ose": 738,
      "ited": 739,
      "Al": 740,
      "ung": 741,
      "more": 742,
      "ste": 743,
      "ax": 744,
      "oid": 745,
      "ah": 746,
      "bu": 747,
      "201": 748,
      "cons": 749,
      "ities": 750,
      "ember": 751,
      "back": 752,
      "lar": 753,
      "try": 754,
      "fil": 755,
      "orn": 756,
      "head": 757,
      "gro": 758,
      "though": 759,
      "idae": 760,
      "ft": 761,
      "ual": 762,
      "gy": 763,
      "bet": 764,
      "ational": 765,
      "ling": 766,
      "new": 767,
      "met": 768,
      "ale": 769,
      "when": 770,
      "nor": 771,
      "cess": 772,
      "eld": 773,
      "ped": 774,
      "used": 775,
      "tern": 776,
      "ven": 777,
      "ash": 778,
      "you": 779,
      "leg": 780,
      "ement": 781,
      ",@": 782,
      "@,@": 783,
      "py": 784,
      "ible": 785,
      "day": 786,
      "inn": 787,
      "clo": 788,
      "An": 789,
      "pol": 790,
      "aid": 791,
      "ord": 792,
      "press": 793,
      "sl": 794,
      "ext": 795,
      "ple": 796,
      "por": 797,
      "ason": 798,
      "mic": 799,
      "ably": 800,
      "cho": 801,
      "di": 802,
      "ced": 803,
      "ased": 804,
      "ised": 805,
      "set": 806,
      "sm": 807,
      "iest": 808,
      "ew": 809,
      "pu": 810,
      "sur": 811,
      "abl": 812,
      "Un": 813,
      "eng": 814,
      "ject": 815,
      "ograph": 816,
      "them": 817,
      "coun": 818,
      "sing": 819,
      "ton": 820,
      "outh": 821,
      "ered": 822,
      "top": 823,
      "ov": 824,
      "mus": 825,
      "bel": 826,
      "bar": 827,
      "ery": 828,
      "spec": 829,
      "fol": 830,
      "ild": 831,
      "than": 832,
      "prod": 833,
      "only": 834,
      "add": 835,
      "ca": 836,
      "trans": 837,
      "ars": 838,
      "ability": 839,
      "includ": 840,
      "ists": 841,
      "ric": 842,
      "inv": 843,
      "sel": 844,
      "gre": 845,
      "about": 846,
      "there": 847,
      "ron": 848,
      "ird": 849,
      "then": 850,
      "ox": 851,
      "ted": 852,
      "ik": 853,
      "sup": 854,
      "tom": 855,
      "rol": 856,
      "sk": 857,
      "num": 858,
      "again": 859,
      "post": 860,
      "bro": 861,
      "mal": 862,
      "ization": 863,
      "read": 864,
      "ines": 865,
      "sion": 866,
      "mar": 867,
      "izing": 868,
      "song": 869,
      "where": 870,
      "ology": 871,
      "well": 872,
      "ake": 873,
      "during": 874,
      "ush": 875,
      "vie": 876,
      "high": 877,
      "ished": 878,
      "call": 879,
      "cept": 880,
      "arm": 881,
      "iver": 882,
      "pul": 883,
      "poly": 884,
      "Ar": 885,
      "game": 886,
      "ween": 887,
      "down": 888,
      "ble": 889,
      "while": 890,
      "inal": 891,
      "ife": 892,
      "use": 893,
      "pat": 894,
      "through": 895,
      "que": 896,
      "ute": 897,
      "writ": 898,
      "istic": 899,
      "iet": 900,
      "uch": 901,
      "bum": 902,
      "ger": 903,
      "atur": 904,
      "ele": 905,
      "oman": 906,
      "jo": 907,
      "eral": 908,
      "dem": 909,
      "ident": 910,
      "iss": 911,
      "bre": 912,
      "ury": 913,
      "nam": 914,
      "En": 915,
      "ient": 916,
      "ran": 917,
      "three": 918,
      "ived": 919,
      "ler": 920,
      "ustr": 921,
      "enn": 922,
      "ks": 923,
      "hand": 924,
      "oto": 925,
      "Wh": 926,
      "cul": 927,
      "ster": 928,
      "hel": 929,
      "ather": 930,
      "dom": 931,
      "view": 932,
      "later": 933,
      "between": 934,
      "ouse": 935,
      "As": 936,
      "ional": 937,
      "val": 938,
      "made": 939,
      "ained": 940,
      "record": 941,
      "aking": 942,
      "sol": 943,
      "long": 944,
      "amb": 945,
      "aff": 946,
      "tic": 947,
      "struct": 948,
      "ify": 949,
      "point": 950,
      "199": 951,
      "uro": 952,
      "irect": 953,
      "before": 954,
      "oper": 955,
      "pan": 956,
      "publ": 957,
      "season": 958,
      "serv": 959,
      "pur": 960,
      "On": 961,
      "ican": 962,
      "pal": 963,
      "def": 964,
      "sal": 965,
      "such": 966,
      "sw": 967,
      "cle": 968,
      "itic": 969,
      "pass": 970,
      "hal": 971,
      "ren": 972,
      "line": 973,
      "now": 974,
      "hum": 975,
      "exp": 976,
      "appear": 977,
      "inc": 978,
      "four": 979,
      "sim": 980,
      "ially": 981,
      "erous": 982,
      "ting": 983,
      "found": 984,
      "vent": 985,
      "uck": 986,
      "tal": 987,
      "ively": 988,
      "rad": 989,
      "ey": 990,
      "film": 991,
      "aph": 992,
      "ram": 993,
      "log": 994,
      "suc": 995,
      "mod": 996,
      "rele": 997,
      "los": 998,
      "iform": 999,
      "will": 1000,
      "follow": 1001,
      "cus": 1002,
      "mill": 1003,
      "mes": 1004,
      "une": 1005,
      "resp": 1006,
      "anth": 1007,
      "cover": 1008,
      "bed": 1009,
      "aur": 1010,
      "wood": 1011,
      "may": 1012,
      "zo": 1013,
      "ball": 1014,
      "dif": 1015,
      "cat": 1016,
      "get": 1017,
      "tow": 1018,
      "mil": 1019,
      "oth": 1020,
      "oh": 1021,
      "ause": 1022,
      "Com": 1023,
      "ony": 1024,
      "ior": 1025,
      "said": 1026,
      "sin": 1027,
      "atic": 1028,
      "ield": 1029,
      "how": 1030,
      "ches": 1031,
      "var": 1032,
      "prov": 1033,
      "ref": 1034,
      "peri": 1035,
      "bur": 1036,
      "war": 1037,
      "second": 1038,
      "ising": 1039,
      "sign": 1040,
      "could": 1041,
      "den": 1042,
      "Amer": 1043,
      "This": 1044,
      "many": 1045,
      "lor": 1046,
      "album": 1047,
      "sever": 1048,
      "tain": 1049,
      "aster": 1050,
      "being": 1051,
      "ost": 1052,
      "rh": 1053,
      "did": 1054,
      "ital": 1055,
      "sto": 1056,
      "ock": 1057,
      "New": 1058,
      "flu": 1059,
      "direct": 1060,
      "side": 1061,
      "dep": 1062,
      "10": 1063,
      "del": 1064,
      "iate": 1065,
      "ently": 1066,
      "unn": 1067,
      "che": 1068,
      "tro": 1069,
      "anc": 1070,
      "ified": 1071,
      "ened": 1072,
      "ments": 1073,
      "bal": 1074,
      "main": 1075,
      "epis": 1076,
      "years": 1077,
      "fish": 1078,
      "ages": 1079,
      "000": 1080,
      "crib": 1081,
      "cour": 1082,
      "ames": 1083,
      "present": 1084,
      "contin": 1085,
      "ody": 1086,
      "vol": 1087,
      "pot": 1088,
      "sch": 1089,
      "phal": 1090,
      "hyd": 1091,
      "show": 1092,
      "els": 1093,
      "ina": 1094,
      "orth": 1095,
      "stud": 1096,
      "lot": 1097,
      "contr": 1098,
      "pred": 1099,
      "At": 1100,
      "ogen": 1101,
      "tur": 1102,
      "ike": 1103,
      "lead": 1104,
      "both": 1105,
      "book": 1106,
      "ral": 1107,
      "ask": 1108,
      "number": 1109,
      "stor": 1110,
      "ept": 1111,
      "stand": 1112,
      "Ro": 1113,
      "phy": 1114,
      "atory": 1115,
      "wer": 1116,
      "syn": 1117,
      "ually": 1118,
      "ged": 1119,
      "rest": 1120,
      "Le": 1121,
      "plac": 1122,
      "ps": 1123,
      "ross": 1124,
      "tim": 1125,
      "ci": 1126,
      "gn": 1127,
      "bor": 1128,
      "..": 1129,
      "charac": 1130,
      "ek": 1131,
      "ley": 1132,
      "thing": 1133,
      "stem": 1134,
      "pod": 1135,
      "ets": 1136,
      "tw": 1137,
      "12": 1138,
      "hist": 1139,
      "series": 1140,
      "mag": 1141,
      "ves": 1142,
      "pse": 1143,
      "against": 1144,
      "dam": 1145,
      "ides": 1146,
      "bi": 1147,
      "band": 1148,
      "urch": 1149,
      "very": 1150,
      "mot": 1151,
      "iously": 1152,
      "ableness": 1153,
      "16": 1154,
      "fam": 1155,
      "gest": 1156,
      "itch": 1157,
      "devel": 1158,
      "gar": 1159,
      "ivers": 1160,
      "lin": 1161,
      "tric": 1162,
      "ously": 1163,
      "har": 1164,
      "what": 1165,
      "ms": 1166,
      "orig": 1167,
      "raw": 1168,
      "ains": 1169,
      "position": 1170,
      "ended": 1171,
      "graph": 1172,
      "lab": 1173,
      "ode": 1174,
      "lim": 1175,
      "aro": 1176,
      "ution": 1177,
      "ats": 1178,
      "near": 1179,
      "sis": 1180,
      "itis": 1181,
      "water": 1182,
      "mel": 1183,
      "ives": 1184,
      "hom": 1185,
      "ude": 1186,
      "self": 1187,
      "wind": 1188,
      "hyper": 1189,
      "ham": 1190,
      "mor": 1191,
      "became": 1192,
      "cop": 1193,
      "including": 1194,
      "fur": 1195,
      "cir": 1196,
      "ants": 1197,
      "loc": 1198,
      "uary": 1199,
      "aceae": 1200,
      "ople": 1201,
      "ha": 1202,
      "just": 1203,
      "ature": 1204,
      "ru": 1205,
      "vers": 1206,
      "scr": 1207,
      "cas": 1208,
      "fact": 1209,
      "these": 1210,
      "onic": 1211,
      "auto": 1212,
      "known": 1213,
      "vi": 1214,
      "aim": 1215,
      "develop": 1216,
      "17": 1217,
      ".”": 1218,
      "squ": 1219,
      "organ": 1220,
      "pen": 1221,
      "ri": 1222,
      "pi": 1223,
      "aged": 1224,
      "counter": 1225,
      "tit": 1226,
      "pseud": 1227,
      "light": 1228,
      "aceous": 1229,
      "ner": 1230,
      "tre": 1231,
      "lock": 1232,
      "house": 1233,
      "emb": 1234,
      "team": 1235,
      "hol": 1236,
      "etic": 1237,
      "la": 1238,
      "15": 1239,
      "tra": 1240,
      "overn": 1241,
      "elect": 1242,
      "gal": 1243,
      "Brit": 1244,
      "requ": 1245,
      "bul": 1246,
      "ision": 1247,
      "success": 1248,
      "ount": 1249,
      "chan": 1250,
      "rod": 1251,
      "empt": 1252,
      "poss": 1253,
      "rece": 1254,
      "cot": 1255,
      "sn": 1256,
      "offic": 1257,
      "several": 1258,
      "return": 1259,
      "mult": 1260,
      "II": 1261,
      "iter": 1262,
      "Joh": 1263,
      "ards": 1264,
      "equ": 1265,
      "sul": 1266,
      "soc": 1267,
      "enter": 1268,
      "ians": 1269,
      "sed": 1270,
      "life": 1271,
      "osis": 1272,
      "put": 1273,
      "wr": 1274,
      "prot": 1275,
      "United": 1276,
      "thor": 1277,
      "even": 1278,
      "plan": 1279,
      "fter": 1280,
      "198": 1281,
      "called": 1282,
      "last": 1283,
      "rid": 1284,
      "ern": 1285,
      "start": 1286,
      "ural": 1287,
      "century": 1288,
      "ites": 1289,
      "aker": 1290,
      "mark": 1291,
      "wards": 1292,
      "cut": 1293,
      "real": 1294,
      "eff": 1295,
      "mid": 1296,
      "edly": 1297,
      "chool": 1298,
      "ole": 1299,
      "och": 1300,
      "John": 1301,
      "dist": 1302,
      "pet": 1303,
      "For": 1304,
      "dy": 1305,
      "until": 1306,
      "jor": 1307,
      "phil": 1308,
      "ures": 1309,
      "div": 1310,
      "She": 1311,
      "bas": 1312,
      "ired": 1313,
      "ately": 1314,
      "same": 1315,
      "ological": 1316,
      "After": 1317,
      "ided": 1318,
      "large": 1319,
      "How": 1320,
      "ency": 1321,
      "foot": 1322,
      "30": 1323,
      "alk": 1324,
      "along": 1325,
      "early": 1326,
      "ined": 1327,
      "cto": 1328,
      "began": 1329,
      "each": 1330,
      "ym": 1331,
      "raft": 1332,
      "field": 1333,
      "sil": 1334,
      "appro": 1335,
      "fac": 1336,
      "ica": 1337,
      "ament": 1338,
      "ground": 1339,
      "ias": 1340,
      "class": 1341,
      "partic": 1342,
      "ping": 1343,
      "onom": 1344,
      "fel": 1345,
      "person": 1346,
      "eg": 1347,
      "rist": 1348,
      "atch": 1349,
      "turn": 1350,
      "spe": 1351,
      "eth": 1352,
      "plic": 1353,
      "beg": 1354,
      "consid": 1355,
      "ata": 1356,
      "uction": 1357,
      "194": 1358,
      "trib": 1359,
      "fall": 1360,
      "vo": 1361,
      "hor": 1362,
      "city": 1363,
      "cast": 1364,
      "people": 1365,
      "list": 1366,
      "small": 1367,
      "rig": 1368,
      "pop": 1369,
      "allow": 1370,
      "atter": 1371,
      "unch": 1372,
      "music": 1373,
      "scor": 1374,
      "thern": 1375,
      "bird": 1376,
      "bon": 1377,
      "ech": 1378,
      "design": 1379,
      "196": 1380,
      "unc": 1381,
      "rown": 1382,
      "antic": 1383,
      "gener": 1384,
      "care": 1385,
      "aving": 1386,
      "place": 1387,
      "camp": 1388,
      "197": 1389,
      "gram": 1390,
      "fully": 1391,
      "uced": 1392,
      "six": 1393,
      "anti": 1394,
      "cum": 1395,
      "formed": 1396,
      "ival": 1397,
      "ief": 1398,
      "prof": 1399,
      "anch": 1400,
      "augh": 1401,
      "support": 1402,
      "road": 1403,
      "fort": 1404,
      "thy": 1405,
      "trad": 1406,
      "American": 1407,
      "continu": 1408,
      "ction": 1409,
      "town": 1410,
      "arian": 1411,
      "ris": 1412,
      "episode": 1413,
      "inf": 1414,
      "vir": 1415,
      "eck": 1416,
      "because": 1417,
      "million": 1418,
      "state": 1419,
      "right": 1420,
      "character": 1421,
      "van": 1422,
      "count": 1423,
      "should": 1424,
      "They": 1425,
      "tem": 1426,
      "every": 1427,
      "north": 1428,
      "cin": 1429,
      "esis": 1430,
      "orph": 1431,
      "describ": 1432,
      "home": 1433,
      "ai": 1434,
      "sequ": 1435,
      "won": 1436,
      "ipt": 1437,
      "build": 1438,
      "tar": 1439,
      "aining": 1440,
      "mac": 1441,
      "room": 1442,
      "ected": 1443,
      "inst": 1444,
      "bes": 1445,
      "far": 1446,
      "area": 1447,
      "iving": 1448,
      "west": 1449,
      "tele": 1450,
      "action": 1451,
      "govern": 1452,
      "bit": 1453,
      "lay": 1454,
      "ister": 1455,
      "sent": 1456,
      "uses": 1457,
      "May": 1458,
      "hem": 1459,
      "much": 1460,
      "ta": 1461,
      "iveness": 1462,
      "stre": 1463,
      "see": 1464,
      "around": 1465,
      "word": 1466,
      "attack": 1467,
      "track": 1468,
      "hydro": 1469,
      "wise": 1470,
      "order": 1471,
      "lex": 1472,
      "ittle": 1473,
      "result": 1474,
      "micro": 1475,
      "name": 1476,
      "group": 1477,
      "som": 1478,
      "ilt": 1479,
      "photo": 1480,
      "Wor": 1481,
      "eless": 1482,
      "cell": 1483,
      "edness": 1484,
      "Mar": 1485,
      "world": 1486,
      "bra": 1487,
      "public": 1488,
      "late": 1489,
      "Ger": 1490,
      "claim": 1491,
      "five": 1492,
      "star": 1493,
      "sym": 1494,
      "British": 1495,
      "iferous": 1496,
      "released": 1497,
      "aud": 1498,
      "report": 1499,
      "system": 1500,
      "ef": 1501,
      "board": 1502,
      "upon": 1503,
      "round": 1504,
      "open": 1505,
      "yo": 1506,
      "ze": 1507,
      "acy": 1508,
      "hypo": 1509,
      "pap": 1510,
      "iment": 1511,
      "astic": 1512,
      "flo": 1513,
      "your": 1514,
      "imp": 1515,
      "night": 1516,
      "ense": 1517,
      "amin": 1518,
      "iend": 1519,
      "sou": 1520,
      "reach": 1521,
      "uit": 1522,
      "major": 1523,
      "km": 1524,
      "net": 1525,
      "power": 1526,
      "best": 1527,
      "ague": 1528,
      "differ": 1529,
      "iation": 1530,
      "short": 1531,
      "50": 1532,
      "batt": 1533,
      "roy": 1534,
      "ging": 1535,
      "tor": 1536,
      "tran": 1537,
      "na": 1538,
      "commun": 1539,
      "took": 1540,
      "sum": 1541,
      "south": 1542,
      "izes": 1543,
      "cit": 1544,
      "incre": 1545,
      "Aug": 1546,
      "pic": 1547,
      "law": 1548,
      "ured": 1549,
      "proof": 1550,
      "Austr": 1551,
      "stat": 1552,
      "August": 1553,
      "Con": 1554,
      "fire": 1555,
      "school": 1556,
      "arn": 1557,
      "14": 1558,
      "lu": 1559,
      "ari": 1560,
      "omen": 1561,
      "death": 1562,
      "bol": 1563,
      "spir": 1564,
      "know": 1565,
      "say": 1566,
      "ways": 1567,
      "since": 1568,
      "ones": 1569,
      "aer": 1570,
      "icul": 1571,
      "mission": 1572,
      "posed": 1573,
      "heart": 1574,
      "ison": 1575,
      "loy": 1576,
      "key": 1577,
      "akes": 1578,
      "Sh": 1579,
      "spr": 1580,
      "13": 1581,
      "draw": 1582,
      "yle": 1583,
      "ales": 1584,
      "cult": 1585,
      "Is": 1586,
      "make": 1587,
      "ges": 1588,
      "ality": 1589,
      "det": 1590,
      "bus": 1591,
      "following": 1592,
      "king": 1593,
      "black": 1594,
      "hood": 1595,
      "left": 1596,
      "ape": 1597,
      "ilar": 1598,
      "However": 1599,
      "ops": 1600,
      "ull": 1601,
      "making": 1602,
      "sport": 1603,
      "great": 1604,
      "iam": 1605,
      "atr": 1606,
      "Sept": 1607,
      "ibility": 1608,
      "Eng": 1609,
      "yn": 1610,
      "ators": 1611,
      "issu": 1612,
      "phys": 1613,
      "ships": 1614,
      "heav": 1615,
      "conf": 1616,
      "Pr": 1617,
      "Col": 1618,
      "itical": 1619,
      "anal": 1620,
      "still": 1621,
      "vision": 1622,
      "ios": 1623,
      "September": 1624,
      "look": 1625,
      "final": 1626,
      "anim": 1627,
      "unf": 1628,
      "emp": 1629,
      "control": 1630,
      "common": 1631,
      "imm": 1632,
      "hold": 1633,
      "body": 1634,
      "angu": 1635,
      "played": 1636,
      "another": 1637,
      "Ju": 1638,
      "dre": 1639,
      "sec": 1640,
      "vict": 1641,
      "rote": 1642,
      "ander": 1643,
      "those": 1644,
      "away": 1645,
      "friend": 1646,
      "apo": 1647,
      "ses": 1648,
      "zy": 1649,
      "eas": 1650,
      "pin": 1651,
      "World": 1652,
      "ben": 1653,
      "dev": 1654,
      "Austral": 1655,
      "cou": 1656,
      "pain": 1657,
      "ending": 1658,
      "imes": 1659,
      "prev": 1660,
      "thr": 1661,
      "phen": 1662,
      "event": 1663,
      "sex": 1664,
      "aver": 1665,
      "face": 1666,
      "reat": 1667,
      "construct": 1668,
      "Car": 1669,
      "ker": 1670,
      "War": 1671,
      "whe": 1672,
      "rot": 1673,
      "received": 1674,
      "iff": 1675,
      "within": 1676,
      "Ind": 1677,
      "hip": 1678,
      "quar": 1679,
      "ection": 1680,
      "ring": 1681,
      "ney": 1682,
      "itor": 1683,
      "ousness": 1684,
      "ification": 1685,
      "There": 1686,
      "ths": 1687,
      "aps": 1688,
      "establ": 1689,
      "win": 1690,
      "weed": 1691,
      "Her": 1692,
      "cu": 1693,
      "bill": 1694,
      "front": 1695,
      "ination": 1696,
      "half": 1697,
      "US": 1698,
      "unre": 1699,
      "vert": 1700,
      "States": 1701,
      "aut": 1702,
      "ences": 1703,
      "izer": 1704,
      "yr": 1705,
      "moved": 1706,
      "species": 1707,
      "lack": 1708,
      "came": 1709,
      "ropical": 1710,
      "cam": 1711,
      "using": 1712,
      "import": 1713,
      "good": 1714,
      "cup": 1715,
      "kill": 1716,
      "June": 1717,
      "hab": 1718,
      "North": 1719,
      "sug": 1720,
      "phon": 1721,
      "cry": 1722,
      "elf": 1723,
      "single": 1724,
      "adv": 1725,
      "family": 1726,
      "ana": 1727,
      "although": 1728,
      "init": 1729,
      "ula": 1730,
      "trav": 1731,
      "belie": 1732,
      "government": 1733,
      "carr": 1734,
      "sat": 1735,
      "esp": 1736,
      "Fr": 1737,
      "itary": 1738,
      "comb": 1739,
      "father": 1740,
      "rock": 1741,
      "11": 1742,
      "national": 1743,
      "period": 1744,
      "find": 1745,
      "hur": 1746,
      "iac": 1747,
      "ologist": 1748,
      "beh": 1749,
      "ving": 1750,
      "itive": 1751,
      "ove": 1752,
      "local": 1753,
      "lower": 1754,
      "strong": 1755,
      "cording": 1756,
      "du": 1757,
      "umb": 1758,
      "arg": 1759,
      "third": 1760,
      "run": 1761,
      "come": 1762,
      "take": 1763,
      "popul": 1764,
      "antly": 1765,
      "pra": 1766,
      "hard": 1767,
      "woman": 1768,
      "described": 1769,
      "King": 1770,
      "ocy": 1771,
      "ices": 1772,
      "chem": 1773,
      "chn": 1774,
      "0s": 1775,
      "wrote": 1776,
      "named": 1777,
      "Bo": 1778,
      "ork": 1779,
      "human": 1780,
      "South": 1781,
      "Tr": 1782,
      "white": 1783,
      "author": 1784,
      "attempt": 1785,
      "iers": 1786,
      "Jan": 1787,
      "little": 1788,
      "istr": 1789,
      "atively": 1790,
      "effect": 1791,
      "Ac": 1792,
      "stone": 1793,
      "ban": 1794,
      "chil": 1795,
      "ote": 1796,
      "few": 1797,
      "sac": 1798,
      "ometer": 1799,
      "pa": 1800,
      "osp": 1801,
      "25": 1802,
      "bow": 1803,
      "ded": 1804,
      "mas": 1805,
      "prim": 1806,
      "collect": 1807,
      "blo": 1808,
      "suggest": 1809,
      "sor": 1810,
      "Octo": 1811,
      "October": 1812,
      "iven": 1813,
      "rep": 1814,
      "ucle": 1815,
      "da": 1816,
      "due": 1817,
      "rous": 1818,
      "cephal": 1819,
      "We": 1820,
      "agon": 1821,
      "stead": 1822,
      "role": 1823,
      "often": 1824,
      "agg": 1825,
      "jud": 1826,
      "heter": 1827,
      "ideo": 1828,
      "ances": 1829,
      "You": 1830,
      "ither": 1831,
      "without": 1832,
      "termin": 1833,
      "quad": 1834,
      "iousness": 1835,
      "Fe": 1836,
      "marr": 1837,
      "club": 1838,
      "dest": 1839,
      "tol": 1840,
      "ids": 1841,
      "rat": 1842,
      "astr": 1843,
      "concer": 1844,
      "storm": 1845,
      "psy": 1846,
      "ager": 1847,
      "ography": 1848,
      "His": 1849,
      "All": 1850,
      "thought": 1851,
      "During": 1852,
      "aken": 1853,
      "company": 1854,
      "church": 1855,
      "free": 1856,
      "aries": 1857,
      "When": 1858,
      "dou": 1859,
      "phor": 1860,
      "July": 1861,
      "bs": 1862,
      "hop": 1863,
      "fic": 1864,
      "ering": 1865,
      "particular": 1866,
      "ience": 1867,
      "saw": 1868,
      "oss": 1869,
      "cel": 1870,
      "era": 1871,
      "England": 1872,
      "tomy": 1873,
      "eu": 1874,
      "York": 1875,
      "grad": 1876,
      "ying": 1877,
      "sho": 1878,
      "Hol": 1879,
      "don": 1880,
      "tract": 1881,
      "pers": 1882,
      "built": 1883,
      "conn": 1884,
      "Christ": 1885,
      "Nov": 1886,
      "got": 1887,
      "ener": 1888,
      "ulate": 1889,
      "plat": 1890,
      "cope": 1891,
      "included": 1892,
      "elling": 1893,
      "lam": 1894,
      "Dec": 1895,
      "Apr": 1896,
      "German": 1897,
      "April": 1898,
      "Euro": 1899,
      "Par": 1900,
      "ali": 1901,
      "iety": 1902,
      "eor": 1903,
      "review": 1904,
      "cogn": 1905,
      "works": 1906,
      "burn": 1907,
      "based": 1908,
      "zz": 1909,
      "perfor": 1910,
      "Man": 1911,
      "ensive": 1912,
      "young": 1913,
      "chang": 1914,
      "card": 1915,
      "games": 1916,
      "sold": 1917,
      "former": 1918,
      "however": 1919,
      "...": 1920,
      "iated": 1921,
      "rup": 1922,
      "fig": 1923,
      "refer": 1924,
      "itu": 1925,
      "god": 1926,
      "inning": 1927,
      "activ": 1928,
      "box": 1929,
      "sound": 1930,
      "test": 1931,
      "need": 1932,
      "omin": 1933,
      "days": 1934,
      "January": 1935,
      "gam": 1936,
      "195": 1937,
      "case": 1938,
      "bot": 1939,
      "never": 1940,
      "arth": 1941,
      "aves": 1942,
      "illa": 1943,
      "No": 1944,
      "must": 1945,
      "among": 1946,
      "mem": 1947,
      "rac": 1948,
      "story": 1949,
      "original": 1950,
      "think": 1951,
      "level": 1952,
      "cher": 1953,
      "irl": 1954,
      "ument": 1955,
      "craft": 1956,
      "fle": 1957,
      "next": 1958,
      "ored": 1959,
      "different": 1960,
      "apt": 1961,
      "featur": 1962,
      "full": 1963,
      "March": 1964,
      "tu": 1965,
      "uss": 1966,
      "history": 1967,
      "By": 1968,
      "Co": 1969,
      "nal": 1970,
      "unct": 1971,
      "loss": 1972,
      "prob": 1973,
      "ours": 1974,
      "clear": 1975,
      "glo": 1976,
      "ailed": 1977,
      "change": 1978,
      "pon": 1979,
      "eling": 1980,
      "miss": 1981,
      "chrom": 1982,
      "ert": 1983,
      "eder": 1984,
      "version": 1985,
      "invol": 1986,
      "popular": 1987,
      "mur": 1988,
      "sen": 1989,
      "ento": 1990,
      "ago": 1991,
      "bil": 1992,
      "nec": 1993,
      "path": 1994,
      "ends": 1995,
      "Europe": 1996,
      "east": 1997,
      "pto": 1998,
      "ibly": 1999,
      "ara": 2000,
      "November": 2001,
      "aul": 2002,
      "adm": 2003,
      "Can": 2004,
      "ential": 2005,
      "agre": 2006,
      "similar": 2007,
      "dle": 2008,
      "ifying": 2009,
      "iversity": 2010,
      "ump": 2011,
      "Cl": 2012,
      "gon": 2013,
      "spl": 2014,
      "estern": 2015,
      "iser": 2016,
      "193": 2017,
      "itional": 2018,
      "Pro": 2019,
      "thes": 2020,
      "gress": 2021,
      "player": 2022,
      "obl": 2023,
      "pent": 2024,
      "omer": 2025,
      "interest": 2026,
      "week": 2027,
      "City": 2028,
      "Gr": 2029,
      "iol": 2030,
      "uk": 2031,
      "ule": 2032,
      "omb": 2033,
      "want": 2034,
      "onto": 2035,
      "December": 2036,
      "represent": 2037,
      "cost": 2038,
      "spect": 2039,
      "bert": 2040,
      "dress": 2041,
      "uted": 2042,
      "compet": 2043,
      "itted": 2044,
      "opl": 2045,
      "ises": 2046,
      "histor": 2047,
      "ford": 2048,
      "ades": 2049,
      "ett": 2050,
      "become": 2051,
      "bac": 2052,
      "grow": 2053,
      "project": 2054,
      "country": 2055,
      "rench": 2056,
      "placed": 2057,
      "bell": 2058,
      "asp": 2059,
      "igr": 2060,
      "performan": 2061,
      "dol": 2062,
      "ned": 2063,
      "lib": 2064,
      "Mc": 2065,
      "expl": 2066,
      "vill": 2067,
      "wall": 2068,
      "eal": 2069,
      "gent": 2070,
      "obia": 2071,
      "continued": 2072,
      "oma": 2073,
      "ums": 2074,
      "ee": 2075,
      "fly": 2076,
      "wa": 2077,
      "ancy": 2078,
      "enc": 2079,
      "sect": 2080,
      "break": 2081,
      "career": 2082,
      "asc": 2083,
      "idea": 2084,
      "lier": 2085,
      "glish": 2086,
      "stit": 2087,
      "seven": 2088,
      "force": 2089,
      "cler": 2090,
      "semi": 2091,
      "tri": 2092,
      "total": 2093,
      "ivil": 2094,
      "ico": 2095,
      "mn": 2096,
      "amph": 2097,
      "techn": 2098,
      "spo": 2099,
      "went": 2100,
      "ivision": 2101,
      "pression": 2102,
      "fem": 2103,
      "mand": 2104,
      "video": 2105,
      "wide": 2106,
      "seen": 2107,
      "mother": 2108,
      "close": 2109,
      "One": 2110,
      "fav": 2111,
      "held": 2112,
      "too": 2113,
      "occur": 2114,
      "Mr": 2115,
      "yard": 2116,
      "lete": 2117,
      "ishness": 2118,
      "2009": 2119,
      "might": 2120,
      "pil": 2121,
      "voc": 2122,
      "idence": 2123,
      "elled": 2124,
      "mount": 2125,
      "National": 2126,
      "ots": 2127,
      "happ": 2128,
      "2008": 2129,
      "hex": 2130,
      "2010": 2131,
      "written": 2132,
      "profess": 2133,
      "Ste": 2134,
      "ba": 2135,
      "wort": 2136,
      "omy": 2137,
      "pher": 2138,
      "quin": 2139,
      "scre": 2140,
      "ming": 2141,
      "piec": 2142,
      "program": 2143,
      "aint": 2144,
      "typ": 2145,
      "mos": 2146,
      "ubl": 2147,
      "ider": 2148,
      "considered": 2149,
      "ift": 2150,
      "kin": 2151,
      "match": 2152,
      "hair": 2153,
      "copy": 2154,
      "pract": 2155,
      "cript": 2156,
      "ama": 2157,
      "tour": 2158,
      "ada": 2159,
      "otic": 2160,
      "isms": 2161,
      "production": 2162,
      "vin": 2163,
      "dren": 2164,
      "covered": 2165,
      "mut": 2166,
      "ements": 2167,
      "ida": 2168,
      "cele": 2169,
      "sure": 2170,
      "prop": 2171,
      "dog": 2172,
      "Be": 2173,
      "gel": 2174,
      "mix": 2175,
      "thal": 2176,
      "anno": 2177,
      "orial": 2178,
      "ume": 2179,
      "River": 2180,
      "ender": 2181,
      "yll": 2182,
      "ffer": 2183,
      "gave": 2184,
      "lac": 2185,
      "lost": 2186,
      "himself": 2187,
      "mach": 2188,
      "tress": 2189,
      "brid": 2190,
      "vit": 2191,
      "influ": 2192,
      "critic": 2193,
      "elec": 2194,
      "times": 2195,
      "isation": 2196,
      "exist": 2197,
      "ampion": 2198,
      "And": 2199,
      "depend": 2200,
      "24": 2201,
      "ady": 2202,
      "defe": 2203,
      "wife": 2204,
      "boy": 2205,
      "English": 2206,
      "26": 2207,
      "ette": 2208,
      "quest": 2209,
      "fulness": 2210,
      "ricane": 2211,
      "origin": 2212,
      "With": 2213,
      "ky": 2214,
      "alth": 2215,
      "usion": 2216,
      "published": 2217,
      "military": 2218,
      "21": 2219,
      "mit": 2220,
      "oly": 2221,
      "past": 2222,
      "cab": 2223,
      "wed": 2224,
      "oney": 2225,
      "felt": 2226,
      "ding": 2227,
      "uff": 2228,
      "xim": 2229,
      "served": 2230,
      "oty": 2231,
      "circum": 2232,
      "complet": 2233,
      "100": 2234,
      "French": 2235,
      "ga": 2236,
      "site": 2237,
      "signific": 2238,
      "proto": 2239,
      "recorded": 2240,
      "certain": 2241,
      "seem": 2242,
      "23": 2243,
      "ues": 2244,
      "omorph": 2245,
      "iting": 2246,
      "roph": 2247,
      "meet": 2248,
      "2007": 2249,
      "curr": 2250,
      "28": 2251,
      "mater": 2252,
      "acc": 2253,
      "process": 2254,
      "hon": 2255,
      "once": 2256,
      "pose": 2257,
      "itions": 2258,
      "command": 2259,
      "fa": 2260,
      "modern": 2261,
      "But": 2262,
      "having": 2263,
      "ken": 2264,
      "intr": 2265,
      "inate": 2266,
      "ille": 2267,
      "atural": 2268,
      "further": 2269,
      ",”": 2270,
      "shr": 2271,
      "indic": 2272,
      "iar": 2273,
      "gun": 2274,
      "lat": 2275,
      "ood": 2276,
      "ishly": 2277,
      "lands": 2278,
      "sar": 2279,
      "uce": 2280,
      "ench": 2281,
      "ivid": 2282,
      "apan": 2283,
      "orous": 2284,
      "El": 2285,
      "dig": 2286,
      "Will": 2287,
      "itics": 2288,
      "ays": 2289,
      "tox": 2290,
      "utes": 2291,
      "deb": 2292,
      "songs": 2293,
      "ius": 2294,
      "oz": 2295,
      "cock": 2296,
      "Batt": 2297,
      "bab": 2298,
      "trip": 2299,
      "tropical": 2300,
      "experi": 2301,
      "pret": 2302,
      "merc": 2303,
      "sens": 2304,
      "accept": 2305,
      "given": 2306,
      "chlor": 2307,
      "tetr": 2308,
      "?”": 2309,
      "hib": 2310,
      "lan": 2311,
      "cred": 2312,
      "sett": 2313,
      "gas": 2314,
      "oy": 2315,
      "hot": 2316,
      "rate": 2317,
      "formation": 2318,
      "bin": 2319,
      "include": 2320,
      "novel": 2321,
      "building": 2322,
      "ked": 2323,
      "ras": 2324,
      "aly": 2325,
      "across": 2326,
      "ready": 2327,
      "psych": 2328,
      "Gen": 2329,
      "doc": 2330,
      "ror": 2331,
      "embers": 2332,
      "compl": 2333,
      "born": 2334,
      "mun": 2335,
      "nar": 2336,
      "viol": 2337,
      "cand": 2338,
      "meth": 2339,
      "eter": 2340,
      "gin": 2341,
      "lers": 2342,
      "step": 2343,
      "logy": 2344,
      "title": 2345,
      "drop": 2346,
      "ald": 2347,
      "offer": 2348,
      "meas": 2349,
      "oxy": 2350,
      "ean": 2351,
      "produced": 2352,
      "BC": 2353,
      "lap": 2354,
      "sus": 2355,
      "cross": 2356,
      "ella": 2357,
      "fan": 2358,
      "kind": 2359,
      "ophy": 2360,
      "ength": 2361,
      "release": 2362,
      "official": 2363,
      "cro": 2364,
      "ils": 2365,
      "appoint": 2366,
      "children": 2367,
      "mi": 2368,
      "acqu": 2369,
      "prote": 2370,
      "relig": 2371,
      "cav": 2372,
      "iable": 2373,
      "introd": 2374,
      "State": 2375,
      "rain": 2376,
      "gor": 2377,
      "tell": 2378,
      "vul": 2379,
      "rect": 2380,
      "olic": 2381,
      "broad": 2382,
      "writing": 2383,
      "returned": 2384,
      "nucle": 2385,
      "eight": 2386,
      "mph": 2387,
      "employ": 2388,
      "Miss": 2389,
      "Rec": 2390,
      "mass": 2391,
      "uter": 2392,
      "va": 2393,
      "ino": 2394,
      "thus": 2395,
      "ondon": 2396,
      "tax": 2397,
      "style": 2398,
      "agn": 2399,
      "2011": 2400,
      "22": 2401,
      "Division": 2402,
      "appeared": 2403,
      "Per": 2404,
      "ado": 2405,
      "ingness": 2406,
      "bound": 2407,
      "desp": 2408,
      "relation": 2409,
      "Although": 2410,
      "extr": 2411,
      "2006": 2412,
      "teen": 2413,
      "rought": 2414,
      "trich": 2415,
      "iction": 2416,
      "rog": 2417,
      "coc": 2418,
      "teach": 2419,
      "host": 2420,
      "Ser": 2421,
      "vest": 2422,
      "idal": 2423,
      "odont": 2424,
      "ylan": 2425,
      "esc": 2426,
      "compan": 2427,
      "League": 2428,
      "important": 2429,
      "ched": 2430,
      "live": 2431,
      "rum": 2432,
      "women": 2433,
      "ince": 2434,
      "odes": 2435,
      "Gu": 2436,
      "Church": 2437,
      "joy": 2438,
      "hous": 2439,
      "educ": 2440,
      "ishing": 2441,
      "branch": 2442,
      "Mus": 2443,
      "allo": 2444,
      "According": 2445,
      "emia": 2446,
      "bruary": 2447,
      "wing": 2448,
      "exec": 2449,
      "development": 2450,
      "27": 2451,
      "Ed": 2452,
      "tail": 2453,
      "assoc": 2454,
      "Char": 2455,
      "big": 2456,
      "fight": 2457,
      "chart": 2458,
      "hydr": 2459,
      "Ad": 2460,
      "Geor": 2461,
      "aign": 2462,
      "ention": 2463,
      "Nor": 2464,
      "nit": 2465,
      "ries": 2466,
      "produc": 2467,
      "possible": 2468,
      "Roman": 2469,
      "Port": 2470,
      "bat": 2471,
      "gold": 2472,
      "pay": 2473,
      "tel": 2474,
      "term": 2475,
      "forces": 2476,
      "bled": 2477,
      "others": 2478,
      "oe": 2479,
      "ilities": 2480,
      "metr": 2481,
      "does": 2482,
      "February": 2483,
      "Re": 2484,
      "rap": 2485,
      "child": 2486,
      "prec": 2487,
      "object": 2488,
      "complete": 2489,
      "help": 2490,
      "diffic": 2491,
      "blood": 2492,
      "mir": 2493,
      "ening": 2494,
      "oral": 2495,
      "range": 2496,
      "destroy": 2497,
      "langu": 2498,
      "watch": 2499,
      "population": 2500,
      "Song": 2501,
      "syl": 2502,
      "aria": 2503,
      "entire": 2504,
      "West": 2505,
      "iro": 2506,
      "mom": 2507,
      "san": 2508,
      "wear": 2509,
      "cil": 2510,
      "sour": 2511,
      "econom": 2512,
      "type": 2513,
      "pick": 2514,
      "osaur": 2515,
      "berry": 2516,
      "difficult": 2517,
      "ulation": 2518,
      "deal": 2519,
      "bod": 2520,
      "pit": 2521,
      "bank": 2522,
      "maker": 2523,
      "emic": 2524,
      "Dylan": 2525,
      "ls": 2526,
      "sper": 2527,
      "members": 2528,
      "ceed": 2529,
      "move": 2530,
      "invest": 2531,
      "various": 2532,
      "ni": 2533,
      "rul": 2534,
      "eled": 2535,
      "My": 2536,
      "matic": 2537,
      "special": 2538,
      "Park": 2539,
      "hu": 2540,
      "hed": 2541,
      "rein": 2542,
      "individ": 2543,
      "general": 2544,
      "throughout": 2545,
      "stop": 2546,
      "ories": 2547,
      "ample": 2548,
      "2012": 2549,
      "Old": 2550,
      "base": 2551,
      "toge": 2552,
      "amy": 2553,
      "eman": 2554,
      "whom": 2555,
      "bud": 2556,
      "ique": 2557,
      "alion": 2558,
      "stated": 2559,
      "political": 2560,
      "television": 2561,
      "jour": 2562,
      "pel": 2563,
      "ress": 2564,
      "mean": 2565,
      "service": 2566,
      "located": 2567,
      "love": 2568,
      "wee": 2569,
      "feet": 2570,
      "ought": 2571,
      "court": 2572,
      "dip": 2573,
      "jack": 2574,
      "ples": 2575,
      "corn": 2576,
      "azine": 2577,
      "fast": 2578,
      "master": 2579,
      "Holmes": 2580,
      "quick": 2581,
      "opter": 2582,
      "ibl": 2583,
      "reported": 2584,
      "together": 2585,
      "walk": 2586,
      "inae": 2587,
      "aled": 2588,
      "itation": 2589,
      "ulated": 2590,
      "door": 2591,
      "ception": 2592,
      "ply": 2593,
      "oms": 2594,
      "concl": 2595,
      "central": 2596,
      "lessness": 2597,
      "sulph": 2598,
      "unced": 2599,
      "recogn": 2600,
      "aging": 2601,
      "soon": 2602,
      "reek": 2603,
      "goal": 2604,
      "reached": 2605,
      "bir": 2606,
      "hil": 2607,
      "slo": 2608,
      "taken": 2609,
      "London": 2610,
      "stant": 2611,
      "cos": 2612,
      "cru": 2613,
      "Japan": 2614,
      "lith": 2615,
      "mind": 2616,
      "aper": 2617,
      "cycl": 2618,
      "These": 2619,
      "gia": 2620,
      "iage": 2621,
      "mol": 2622,
      "ning": 2623,
      "plant": 2624,
      "ocr": 2625,
      "Count": 2626,
      "tos": 2627,
      "shar": 2628,
      "compar": 2629,
      "fre": 2630,
      "fill": 2631,
      "mm": 2632,
      "estim": 2633,
      "opt": 2634,
      "iqu": 2635,
      "rhe": 2636,
      "rev": 2637,
      "gly": 2638,
      "atin": 2639,
      "suffer": 2640,
      "mong": 2641,
      "mouth": 2642,
      "priv": 2643,
      "spor": 2644,
      "heavy": 2645,
      "performance": 2646,
      "Mich": 2647,
      "lit": 2648,
      "rather": 2649,
      "ibr": 2650,
      "restr": 2651,
      "subject": 2652,
      "developed": 2653,
      "Afr": 2654,
      "Scot": 2655,
      "died": 2656,
      "vic": 2657,
      "arily": 2658,
      "established": 2659,
      "imin": 2660,
      "While": 2661,
      "approach": 2662,
      "construction": 2663,
      "fund": 2664,
      "stic": 2665,
      "sea": 2666,
      "behind": 2667,
      "separ": 2668,
      "discus": 2669,
      "miles": 2670,
      "cath": 2671,
      "2013": 2672,
      "General": 2673,
      "nic": 2674,
      "rank": 2675,
      "ato": 2676,
      "earch": 2677,
      "treat": 2678,
      "bic": 2679,
      "either": 2680,
      "give": 2681,
      "yet": 2682,
      "inj": 2683,
      "electro": 2684,
      "coast": 2685,
      "rail": 2686,
      "industr": 2687,
      "Pol": 2688,
      "cular": 2689,
      "ester": 2690,
      "avid": 2691,
      "America": 2692,
      "material": 2693,
      "oct": 2694,
      "sle": 2695,
      "acet": 2696,
      "print": 2697,
      "Ha": 2698,
      "To": 2699,
      "almost": 2700,
      "uncon": 2701,
      "ston": 2702,
      "poor": 2703,
      "pole": 2704,
      "events": 2705,
      "itting": 2706,
      "successful": 2707,
      "campaign": 2708,
      "William": 2709,
      "bid": 2710,
      "ny": 2711,
      "nia": 2712,
      "learn": 2713,
      "omas": 2714,
      "aden": 2715,
      "arded": 2716,
      "noted": 2717,
      "ologic": 2718,
      "Br": 2719,
      "Or": 2720,
      "bing": 2721,
      "chap": 2722,
      "respect": 2723,
      "enic": 2724,
      "urg": 2725,
      "imper": 2726,
      "occup": 2727,
      "University": 2728,
      "started": 2729,
      "neum": 2730,
      "created": 2731,
      "iant": 2732,
      "ka": 2733,
      "ete": 2734,
      "berg": 2735,
      "region": 2736,
      "bush": 2737,
      "29": 2738,
      "least": 2739,
      "stage": 2740,
      "account": 2741,
      "promot": 2742,
      "dead": 2743,
      "anger": 2744,
      "orning": 2745,
      "inct": 2746,
      "instead": 2747,
      "mov": 2748,
      "Jack": 2749,
      "bear": 2750,
      "shot": 2751,
      "190": 2752,
      "oste": 2753,
      "reland": 2754,
      "iber": 2755,
      "writer": 2756,
      "ests": 2757,
      "Ireland": 2758,
      "gle": 2759,
      "performed": 2760,
      "ael": 2761,
      "fut": 2762,
      "towards": 2763,
      "load": 2764,
      "respons": 2765,
      "Air": 2766,
      "idi": 2767,
      "pressed": 2768,
      "foc": 2769,
      "sand": 2770,
      "utr": 2771,
      "western": 2772,
      "ioned": 2773,
      "tru": 2774,
      "embr": 2775,
      "40": 2776,
      "lines": 2777,
      "unp": 2778,
      "chron": 2779,
      "ota": 2780,
      "TV": 2781,
      "fect": 2782,
      "inner": 2783,
      "here": 2784,
      "wit": 2785,
      "alle": 2786,
      "conduct": 2787,
      "civil": 2788,
      "ayed": 2789,
      "southern": 2790,
      "business": 2791,
      "girl": 2792,
      "iod": 2793,
      "saf": 2794,
      "regular": 2795,
      "remained": 2796,
      "surv": 2797,
      "colon": 2798,
      "habit": 2799,
      "ties": 2800,
      "enced": 2801,
      "phas": 2802,
      "umin": 2803,
      "keep": 2804,
      "lowing": 2805,
      "fishes": 2806,
      "James": 2807,
      "guns": 2808,
      "enes": 2809,
      "secret": 2810,
      "reve": 2811,
      "eler": 2812,
      "iding": 2813,
      "izz": 2814,
      "ips": 2815,
      "Mont": 2816,
      "liv": 2817,
      "tab": 2818,
      "ero": 2819,
      "icle": 2820,
      "assist": 2821,
      "mist": 2822,
      "becom": 2823,
      "capt": 2824,
      "caused": 2825,
      "Roy": 2826,
      "previous": 2827,
      "antim": 2828,
      "clim": 2829,
      "boat": 2830,
      "mad": 2831,
      "touch": 2832,
      "athy": 2833,
      "fun": 2834,
      "xen": 2835,
      "lement": 2836,
      "deep": 2837,
      "vac": 2838,
      "rec": 2839,
      "impro": 2840,
      "pound": 2841,
      "scar": 2842,
      "chor": 2843,
      "blue": 2844,
      "peak": 2845,
      "added": 2846,
      "Australia": 2847,
      "Brig": 2848,
      "nav": 2849,
      "earth": 2850,
      "brought": 2851,
      "pitch": 2852,
      "unex": 2853,
      "emy": 2854,
      "ometr": 2855,
      "followed": 2856,
      "lic": 2857,
      "proble": 2858,
      "plas": 2859,
      "areas": 2860,
      "rich": 2861,
      "situ": 2862,
      "island": 2863,
      "chair": 2864,
      "firm": 2865,
      "reflect": 2866,
      "block": 2867,
      "gall": 2868,
      "ope": 2869,
      "rome": 2870,
      "ocar": 2871,
      "Road": 2872,
      "Black": 2873,
      "kil": 2874,
      "etimes": 2875,
      "poem": 2876,
      "comment": 2877,
      "opened": 2878,
      "months": 2879,
      "color": 2880,
      "nation": 2881,
      "ano": 2882,
      "amer": 2883,
      "imag": 2884,
      "commerc": 2885,
      "asty": 2886,
      "Atl": 2887,
      "nom": 2888,
      "defin": 2889,
      "capital": 2890,
      "dic": 2891,
      "fif": 2892,
      "chy": 2893,
      "igned": 2894,
      "electr": 2895,
      "cate": 2896,
      "stick": 2897,
      "secur": 2898,
      "avail": 2899,
      "ophil": 2900,
      "birds": 2901,
      "dark": 2902,
      "rub": 2903,
      "grav": 2904,
      "demon": 2905,
      "passed": 2906,
      "section": 2907,
      "prevent": 2908,
      "weight": 2909,
      "points": 2910,
      "director": 2911,
      "Reg": 2912,
      "natural": 2913,
      "emer": 2914,
      "emon": 2915,
      "possess": 2916,
      "forward": 2917,
      "feel": 2918,
      "select": 2919,
      "grand": 2920,
      "players": 2921,
      "ails": 2922,
      "consist": 2923,
      "study": 2924,
      "Rich": 2925,
      "bag": 2926,
      "mu": 2927,
      "station": 2928,
      "amed": 2929,
      "empor": 2930,
      "coach": 2931,
      "appearance": 2932,
      "contract": 2933,
      "piece": 2934,
      "bad": 2935,
      "hus": 2936,
      "table": 2937,
      "aughter": 2938,
      "ani": 2939,
      "High": 2940,
      "rif": 2941,
      "evol": 2942,
      "tub": 2943,
      "itar": 2944,
      "forced": 2945,
      "liest": 2946,
      "evidence": 2947,
      "whose": 2948,
      "pec": 2949,
      "smo": 2950,
      "xy": 2951,
      "acid": 2952,
      "member": 2953,
      "race": 2954,
      "ental": 2955,
      "olar": 2956,
      "aven": 2957,
      "course": 2958,
      "consider": 2959,
      "battle": 2960,
      "Ex": 2961,
      "pale": 2962,
      "already": 2963,
      "reason": 2964,
      "sept": 2965,
      "ju": 2966,
      "nd": 2967,
      "esh": 2968,
      "respond": 2969,
      "fear": 2970,
      "oon": 2971,
      "recent": 2972,
      "mental": 2973,
      "ographic": 2974,
      "addition": 2975,
      "characters": 2976,
      "pseudo": 2977,
      "Bar": 2978,
      "De": 2979,
      "Ma": 2980,
      "tered": 2981,
      "example": 2982,
      "apped": 2983,
      "County": 2984,
      "swe": 2985,
      "estr": 2986,
      "radio": 2987,
      "particularly": 2988,
      "Wil": 2989,
      "rhy": 2990,
      "chi": 2991,
      "ogram": 2992,
      "asked": 2993,
      "claimed": 2994,
      "60": 2995,
      "oud": 2996,
      "proper": 2997,
      "kee": 2998,
      "manager": 2999,
      "stock": 3000,
      "flood": 3001,
      "dial": 3002,
      "sun": 3003,
      "oul": 3004,
      "pled": 3005,
      "going": 3006,
      "189": 3007,
      "product": 3008,
      "river": 3009,
      "stars": 3010,
      "phos": 3011,
      "promis": 3012,
      "resident": 3013,
      "month": 3014,
      "playing": 3015,
      "Mount": 3016,
      "ange": 3017,
      "enough": 3018,
      "scene": 3019,
      "social": 3020,
      "til": 3021,
      "icated": 3022,
      "phyl": 3023,
      "emat": 3024,
      "lets": 3025,
      "bers": 3026,
      "ases": 3027,
      "otrop": 3028,
      "flow": 3029,
      "pany": 3030,
      "uel": 3031,
      "green": 3032,
      "rupt": 3033,
      "significant": 3034,
      "Su": 3035,
      "bene": 3036,
      "reet": 3037,
      "ested": 3038,
      "unders": 3039,
      "prepar": 3040,
      "announced": 3041,
      "completed": 3042,
      "jac": 3043,
      "link": 3044,
      "rab": 3045,
      "ena": 3046,
      "access": 3047,
      "hyp": 3048,
      "2004": 3049,
      "bour": 3050,
      "barr": 3051,
      "lie": 3052,
      "perform": 3053,
      "nesses": 3054,
      "2005": 3055,
      "standing": 3056,
      "God": 3057,
      "Some": 3058,
      "debut": 3059,
      "qual": 3060,
      "achie": 3061,
      "iums": 3062,
      "Pal": 3063,
      "cad": 3064,
      "fit": 3065,
      "lav": 3066,
      "mort": 3067,
      "inic": 3068,
      "oted": 3069,
      "flag": 3070,
      "working": 3071,
      "Em": 3072,
      "throw": 3073,
      "ams": 3074,
      "amount": 3075,
      "abol": 3076,
      "corpor": 3077,
      "grass": 3078,
      "issue": 3079,
      "exper": 3080,
      "better": 3081,
      "unning": 3082,
      "Cor": 3083,
      "rag": 3084,
      "ension": 3085,
      "ference": 3086,
      "killed": 3087,
      "pup": 3088,
      "always": 3089,
      "recon": 3090,
      "tome": 3091,
      "staff": 3092,
      "itself": 3093,
      "voice": 3094,
      "pter": 3095,
      "outside": 3096,
      "liament": 3097,
      "visit": 3098,
      "labor": 3099,
      "paper": 3100,
      "Se": 3101,
      "yards": 3102,
      "whole": 3103,
      "join": 3104,
      "window": 3105,
      "mam": 3106,
      "morning": 3107,
      "stra": 3108,
      "immed": 3109,
      "beat": 3110,
      "istically": 3111,
      "scored": 3112,
      "45": 3113,
      "Town": 3114,
      "pig": 3115,
      "asing": 3116,
      "bring": 3117,
      "iat": 3118,
      "pis": 3119,
      "icon": 3120,
      "elike": 3121,
      "eastern": 3122,
      "hit": 3123,
      "job": 3124,
      "ns": 3125,
      "determin": 3126,
      "ishment": 3127,
      "bles": 3128,
      "particip": 3129,
      "aus": 3130,
      "admin": 3131,
      "sud": 3132,
      "oses": 3133,
      "ianism": 3134,
      "Intern": 3135,
      "eye": 3136,
      "dia": 3137,
      "fat": 3138,
      "ugh": 3139,
      "uded": 3140,
      "aryn": 3141,
      "interview": 3142,
      "ysis": 3143,
      "finished": 3144,
      "flower": 3145,
      "money": 3146,
      "eds": 3147,
      "istical": 3148,
      "Australian": 3149,
      "neg": 3150,
      "outs": 3151,
      "likely": 3152,
      "Kingdom": 3153,
      "features": 3154,
      "originally": 3155,
      "commercial": 3156,
      "Hist": 3157,
      "Sim": 3158,
      "Sec": 3159,
      "wick": 3160,
      "neuro": 3161,
      "bling": 3162,
      "believed": 3163,
      "plum": 3164,
      "shall": 3165,
      "food": 3166,
      "allowed": 3167,
      "Care": 3168,
      "Feder": 3169,
      "dism": 3170,
      "mud": 3171,
      "pid": 3172,
      "ye": 3173,
      "ols": 3174,
      "phag": 3175,
      "tee": 3176,
      "research": 3177,
      "Company": 3178,
      "spring": 3179,
      "method": 3180,
      "Music": 3181,
      "oil": 3182,
      "amine": 3183,
      "tries": 3184,
      "irst": 3185,
      "ipe": 3186,
      "osity": 3187,
      "fed": 3188,
      "summer": 3189,
      "Cup": 3190,
      "fell": 3191,
      "told": 3192,
      "ads": 3193,
      "uten": 3194,
      "ills": 3195,
      "astro": 3196,
      "active": 3197,
      "remain": 3198,
      "drew": 3199,
      "mith": 3200,
      "agu": 3201,
      "center": 3202,
      "inated": 3203,
      "ita": 3204,
      "achy": 3205,
      "Sci": 3206,
      "pack": 3207,
      "sav": 3208,
      "threat": 3209,
      "thetic": 3210,
      "hear": 3211,
      "critics": 3212,
      "That": 3213,
      "quarter": 3214,
      "probably": 3215,
      "occas": 3216,
      "hours": 3217,
      "uv": 3218,
      "iner": 3219,
      "icular": 3220,
      "amic": 3221,
      "aded": 3222,
      "icalness": 3223,
      "contrib": 3224,
      "lif": 3225,
      "above": 3226,
      "pow": 3227,
      "apy": 3228,
      "eyes": 3229,
      "dys": 3230,
      "worked": 3231,
      "fourth": 3232,
      "provided": 3233,
      "aqu": 3234,
      "lip": 3235,
      "unit": 3236,
      "leave": 3237,
      "turned": 3238,
      "France": 3239,
      "je": 3240,
      "anes": 3241,
      "raf": 3242,
      "Street": 3243,
      "glass": 3244,
      "damage": 3245,
      "sometimes": 3246,
      "eventually": 3247,
      "hurricane": 3248,
      "weeks": 3249,
      "David": 3250,
      "Two": 3251,
      "hes": 3252,
      "pus": 3253,
      "unw": 3254,
      "route": 3255,
      "cean": 3256,
      "sole": 3257,
      "matter": 3258,
      "Army": 3259,
      "leading": 3260,
      "fix": 3261,
      "iled": 3262,
      "ultr": 3263,
      "strate": 3264,
      "hero": 3265,
      "police": 3266,
      "personal": 3267,
      "Grand": 3268,
      "Rep": 3269,
      "inous": 3270,
      "aters": 3271,
      "ores": 3272,
      "iso": 3273,
      "chal": 3274,
      "anned": 3275,
      "liter": 3276,
      "iron": 3277,
      "undis": 3278,
      "Robert": 3279,
      "len": 3280,
      "ands": 3281,
      "elle": 3282,
      "territ": 3283,
      "suff": 3284,
      "forms": 3285,
      "decided": 3286,
      "icted": 3287,
      "engine": 3288,
      "iph": 3289,
      "mess": 3290,
      "nest": 3291,
      "size": 3292,
      "zer": 3293,
      "agog": 3294,
      "ights": 3295,
      "lessly": 3296,
      "launch": 3297,
      "protect": 3298,
      "Tech": 3299,
      "cause": 3300,
      "spac": 3301,
      "observ": 3302,
      "parts": 3303,
      "words": 3304,
      "ampionship": 3305,
      "Hen": 3306,
      "mous": 3307,
      "atom": 3308,
      "unst": 3309,
      "pros": 3310,
      "space": 3311,
      "ophag": 3312,
      "2003": 3313,
      "office": 3314,
      "joined": 3315,
      "Flor": 3316,
      "Ne": 3317,
      "fold": 3318,
      "pian": 3319,
      "ifies": 3320,
      "discover": 3321,
      "president": 3322,
      "If": 3323,
      "bib": 3324,
      "jug": 3325,
      "mart": 3326,
      "pas": 3327,
      "sam": 3328,
      "slow": 3329,
      "err": 3330,
      "thick": 3331,
      "ingu": 3332,
      "ivity": 3333,
      "phere": 3334,
      "agement": 3335,
      "emot": 3336,
      "Fol": 3337,
      "Ham": 3338,
      "fal": 3339,
      "horn": 3340,
      "yel": 3341,
      "argu": 3342,
      "loid": 3343,
      "encephal": 3344,
      "2015": 3345,
      "selves": 3346,
      "nearly": 3347,
      "nature": 3348,
      "push": 3349,
      "asy": 3350,
      "ante": 3351,
      "pressure": 3352,
      "directed": 3353,
      "structure": 3354,
      "available": 3355,
      "dish": 3356,
      "sap": 3357,
      "stay": 3358,
      "frag": 3359,
      "crew": 3360,
      "northern": 3361,
      "transfer": 3362,
      "espec": 3363,
      "relationship": 3364,
      "Bill": 3365,
      "date": 3366,
      "oo": 3367,
      "icate": 3368,
      "training": 3369,
      "achel": 3370,
      "operation": 3371,
      "generally": 3372,
      "current": 3373,
      "Nav": 3374,
      "liness": 3375,
      "ske": 3376,
      "ington": 3377,
      "check": 3378,
      "utter": 3379,
      "preh": 3380,
      "language": 3381,
      "buck": 3382,
      "male": 3383,
      "ora": 3384,
      "itude": 3385,
      "ura": 3386,
      "cow": 3387,
      "necess": 3388,
      "From": 3389,
      "bish": 3390,
      "tap": 3391,
      "yer": 3392,
      "oned": 3393,
      "lege": 3394,
      "resh": 3395,
      "resol": 3396,
      "ledge": 3397,
      "horse": 3398,
      "cha": 3399,
      "consum": 3400,
      "elements": 3401,
      "dil": 3402,
      "rene": 3403,
      "ti": 3404,
      "onia": 3405,
      "opin": 3406,
      "positive": 3407,
      "Battalion": 3408,
      "ibleness": 3409,
      "kes": 3410,
      "rush": 3411,
      "trust": 3412,
      "ety": 3413,
      "usually": 3414,
      "aux": 3415,
      "blow": 3416,
      "ication": 3417,
      "irt": 3418,
      "spin": 3419,
      "ects": 3420,
      "reser": 3421,
      "featured": 3422,
      "Hur": 3423,
      "tons": 3424,
      "rew": 3425,
      "distrib": 3426,
      "international": 3427,
      "opening": 3428,
      "marriage": 3429,
      "Carey": 3430,
      "Love": 3431,
      "hour": 3432,
      "las": 3433,
      "sab": 3434,
      "taking": 3435,
      "inde": 3436,
      "olith": 3437,
      "pool": 3438,
      "weak": 3439,
      "vey": 3440,
      "letter": 3441,
      "ophobia": 3442,
      "188": 3443,
      "aught": 3444,
      "saying": 3445,
      "Du": 3446,
      "cub": 3447,
      "itable": 3448,
      "stere": 3449,
      "temper": 3450,
      "whether": 3451,
      "despite": 3452,
      "Royal": 3453,
      "Ber": 3454,
      "icy": 3455,
      "styl": 3456,
      "erson": 3457,
      "cyto": 3458,
      "brother": 3459,
      "winds": 3460,
      "daughter": 3461,
      "rang": 3462,
      "sir": 3463,
      "send": 3464,
      "edy": 3465,
      "roat": 3466,
      "intens": 3467,
      "highway": 3468,
      "transport": 3469,
      "infr": 3470,
      "depart": 3471,
      "Ear": 3472,
      "fing": 3473,
      "pict": 3474,
      "rim": 3475,
      "onse": 3476,
      "health": 3477,
      "appe": 3478,
      "worth": 3479,
      "myself": 3480,
      "aircraft": 3481,
      "European": 3482,
      "Mex": 3483,
      "edral": 3484,
      "Jer": 3485,
      "kan": 3486,
      "unsh": 3487,
      "worm": 3488,
      "headed": 3489,
      "ordan": 3490,
      "ogenic": 3491,
      "market": 3492,
      "George": 3493,
      "especially": 3494,
      "Mor": 3495,
      "cis": 3496,
      "fus": 3497,
      "hosp": 3498,
      "bey": 3499,
      "subsequ": 3500,
      "anna": 3501,
      "provide": 3502,
      "future": 3503,
      "Mary": 3504,
      "dim": 3505,
      "gem": 3506,
      "states": 3507,
      "verse": 3508,
      "appar": 3509,
      "figure": 3510,
      "wanted": 3511,
      "Federer": 3512,
      "brom": 3513,
      "opod": 3514,
      "iced": 3515,
      "raz": 3516,
      "earlier": 3517,
      "decision": 3518,
      "famil": 3519,
      "2nd": 3520,
      "Fo": 3521,
      "aj": 3522,
      "uous": 3523,
      "ership": 3524,
      "stro": 3525,
      "iling": 3526,
      "omat": 3527,
      "portion": 3528,
      "enny": 3529,
      "books": 3530,
      "victory": 3531,
      "cription": 3532,
      "International": 3533,
      "idd": 3534,
      "izable": 3535,
      "actions": 3536,
      "anning": 3537,
      "something": 3538,
      "hands": 3539,
      "professional": 3540,
      "Brigade": 3541,
      "31": 3542,
      "bly": 3543,
      "oft": 3544,
      "ires": 3545,
      "plied": 3546,
      "spar": 3547,
      "ometry": 3548,
      "stein": 3549,
      "viron": 3550,
      "Other": 3551,
      "Wales": 3552,
      "isto": 3553,
      "princ": 3554,
      "iped": 3555,
      "arts": 3556,
      "awn": 3557,
      "remark": 3558,
      "experience": 3559,
      "35": 3560,
      "crow": 3561,
      "trig": 3562,
      "oting": 3563,
      "avoid": 3564,
      "odon": 3565,
      "undred": 3566,
      "declar": 3567,
      "Act": 3568,
      "Viet": 3569,
      "lings": 3570,
      "thous": 3571,
      "chall": 3572,
      "heard": 3573,
      "wash": 3574,
      "actin": 3575,
      "female": 3576,
      "Ab": 3577,
      "mate": 3578,
      "alone": 3579,
      "coel": 3580,
      "aug": 3581,
      "operations": 3582,
      "community": 3583,
      "increased": 3584,
      "praised": 3585,
      "religious": 3586,
      "bomb": 3587,
      "frequ": 3588,
      "iot": 3589,
      "nes": 3590,
      "tum": 3591,
      "vas": 3592,
      "enjoy": 3593,
      "subs": 3594,
      "remains": 3595,
      "moment": 3596,
      "done": 3597,
      "length": 3598,
      "pneum": 3599,
      "rib": 3600,
      "eding": 3601,
      "idly": 3602,
      "progress": 3603,
      "neph": 3604,
      "bron": 3605,
      "White": 3606,
      "Pl": 3607,
      "dar": 3608,
      "hall": 3609,
      "ithe": 3610,
      "lad": 3611,
      "nine": 3612,
      "oric": 3613,
      "icient": 3614,
      "nothing": 3615,
      "archae": 3616,
      "charge": 3617,
      "largest": 3618,
      "troops": 3619,
      "SA": 3620,
      "wel": 3621,
      "iles": 3622,
      "shop": 3623,
      "oder": 3624,
      "scul": 3625,
      "macro": 3626,
      "tin": 3627,
      "ema": 3628,
      "prison": 3629,
      "ographer": 3630,
      "speak": 3631,
      "East": 3632,
      "Game": 3633,
      "Play": 3634,
      "gain": 3635,
      "wish": 3636,
      "scient": 3637,
      "bridge": 3638,
      "House": 3639,
      "Wal": 3640,
      "cac": 3641,
      "alist": 3642,
      "really": 3643,
      "sey": 3644,
      "arrang": 3645,
      "coll": 3646,
      "tomies": 3647,
      "pursu": 3648,
      "fellow": 3649,
      "question": 3650,
      "Atlantic": 3651,
      "Henry": 3652,
      "Jordan": 3653,
      "Mad": 3654,
      "iaceae": 3655,
      "nas": 3656,
      "itan": 3657,
      "league": 3658,
      "cham": 3659,
      "antis": 3660,
      "moon": 3661,
      "surround": 3662,
      "encies": 3663,
      "appointed": 3664,
      "Cath": 3665,
      "eller": 3666,
      "oured": 3667,
      "arrived": 3668,
      "create": 3669,
      "pleas": 3670,
      "names": 3671,
      "Christian": 3672,
      "husband": 3673,
      "Cent": 3674,
      "entered": 3675,
      "urs": 3676,
      "beaut": 3677,
      "excl": 3678,
      "ometric": 3679,
      "peace": 3680,
      "fruit": 3681,
      "2014": 3682,
      "palae": 3683,
      "response": 3684,
      "III": 3685,
      "spirit": 3686,
      "doub": 3687,
      "birth": 3688,
      "ois": 3689,
      "icol": 3690,
      "seas": 3691,
      "lod": 3692,
      "ectomy": 3693,
      "graphy": 3694,
      "Cong": 3695,
      "Jew": 3696,
      "Min": 3697,
      "tree": 3698,
      "escent": 3699,
      "edge": 3700,
      "forc": 3701,
      "prer": 3702,
      "19th": 3703,
      "nov": 3704,
      "ords": 3705,
      "ordin": 3706,
      "sister": 3707,
      "Following": 3708,
      "Bl": 3709,
      "Part": 3710,
      "anis": 3711,
      "arc": 3712,
      "uria": 3713,
      "igen": 3714,
      "aust": 3715,
      "myth": 3716,
      "standard": 3717,
      "houses": 3718,
      "reen": 3719,
      "omal": 3720,
      "search": 3721,
      "write": 3722,
      "Island": 3723,
      "Hero": 3724,
      "ublic": 3725,
      "Ke": 3726,
      "independ": 3727,
      "chol": 3728,
      "amid": 3729,
      "otomy": 3730,
      "individual": 3731,
      "Florida": 3732,
      "bug": 3733,
      "han": 3734,
      "plot": 3735,
      "oration": 3736,
      "nonre": 3737,
      "angel": 3738,
      "score": 3739,
      "designed": 3740,
      "murder": 3741,
      "tes": 3742,
      "ocer": 3743,
      "ouri": 3744,
      "specific": 3745,
      "culture": 3746,
      "celebr": 3747,
      "70": 3748,
      "Most": 3749,
      "gang": 3750,
      "hundred": 3751,
      "orm": 3752,
      "lyr": 3753,
      "illo": 3754,
      "trade": 3755,
      "iful": 3756,
      "ower": 3757,
      "coming": 3758,
      "media": 3759,
      "village": 3760,
      "hang": 3761,
      "tend": 3762,
      "winter": 3763,
      "escap": 3764,
      "entr": 3765,
      "minute": 3766,
      "party": 3767,
      "financ": 3768,
      "legal": 3769,
      "magazine": 3770,
      "street": 3771,
      "favor": 3772,
      "Ir": 3773,
      "Med": 3774,
      "Red": 3775,
      "bos": 3776,
      "“‘": 3777,
      "aling": 3778,
      "true": 3779,
      "quer": 3780,
      "election": 3781,
      "bis": 3782,
      "snow": 3783,
      "according": 3784,
      "spent": 3785,
      "udd": 3786,
      "flict": 3787,
      "cyclo": 3788,
      "ugu": 3789,
      "metal": 3790,
      "themselves": 3791,
      "script": 3792,
      "football": 3793,
      "Oliv": 3794,
      "ibe": 3795,
      "jun": 3796,
      "pect": 3797,
      "uco": 3798,
      "insp": 3799,
      "environ": 3800,
      "theast": 3801,
      "hemat": 3802,
      "urr": 3803,
      "ipar": 3804,
      "related": 3805,
      "roll": 3806,
      "gard": 3807,
      "nut": 3808,
      "unper": 3809,
      "phan": 3810,
      "aine": 3811,
      "posit": 3812,
      "2001": 3813,
      "limited": 3814,
      "activity": 3815,
      "machine": 3816,
      "estimated": 3817,
      "immediate": 3818,
      "Rock": 3819,
      "fib": 3820,
      "tle": 3821,
      "text": 3822,
      "ware": 3823,
      "orse": 3824,
      "root": 3825,
      "icks": 3826,
      "185": 3827,
      "AA": 3828,
      "Paul": 3829,
      "San": 3830,
      "gig": 3831,
      "ij": 3832,
      "ipal": 3833,
      "actic": 3834,
      "minor": 3835,
      "airs": 3836,
      "Missouri": 3837,
      "situation": 3838,
      "iating": 3839,
      "umn": 3840,
      "goals": 3841,
      "folk": 3842,
      "speed": 3843,
      "suggested": 3844,
      "38": 3845,
      "500": 3846,
      "brown": 3847,
      "sort": 3848,
      "inqu": 3849,
      "tery": 3850,
      "shire": 3851,
      "prior": 3852,
      "upper": 3853,
      "mechan": 3854,
      "ologies": 3855,
      "closed": 3856,
      "Indian": 3857,
      "education": 3858,
      "quickly": 3859,
      "fum": 3860,
      "haps": 3861,
      "sense": 3862,
      "anas": 3863,
      "replaced": 3864,
      "rose": 3865,
      "stall": 3866,
      "acific": 3867,
      "adian": 3868,
      "positions": 3869,
      "approxim": 3870,
      "instit": 3871,
      "involved": 3872,
      "Gal": 3873,
      "sess": 3874,
      "shell": 3875,
      "brig": 3876,
      "slip": 3877,
      "changes": 3878,
      "hill": 3879,
      "iology": 3880,
      "jur": 3881,
      "latter": 3882,
      "nis": 3883,
      "units": 3884,
      "icket": 3885,
      "portun": 3886,
      "apping": 3887,
      "signed": 3888,
      "animal": 3889,
      "execut": 3890,
      "administr": 3891,
      "Mark": 3892,
      "Phil": 3893,
      "die": 3894,
      "acon": 3895,
      "ading": 3896,
      "adult": 3897,
      "advert": 3898,
      "aped": 3899,
      "highest": 3900,
      "previously": 3901,
      "introduced": 3902,
      "Don": 3903,
      "ds": 3904,
      "pun": 3905,
      "address": 3906,
      "acks": 3907,
      "retro": 3908,
      "minutes": 3909,
      "plays": 3910,
      "regard": 3911,
      "sky": 3912,
      "expect": 3913,
      "collection": 3914,
      "First": 3915,
      "ining": 3916,
      "information": 3917,
      "urb": 3918,
      "supr": 3919,
      "anted": 3920,
      "bery": 3921,
      "captur": 3922,
      "gypt": 3923,
      "stream": 3924,
      "ordered": 3925,
      "majority": 3926,
      "benz": 3927,
      "Michael": 3928,
      "Bay": 3929,
      "Best": 3930,
      "Day": 3931,
      "luc": 3932,
      "ati": 3933,
      "urban": 3934,
      "neigh": 3935,
      "guard": 3936,
      "normal": 3937,
      "surface": 3938,
      "oxid": 3939,
      "noncon": 3940,
      "moving": 3941,
      "wound": 3942,
      "finally": 3943,
      "useum": 3944,
      "average": 3945,
      "Cap": 3946,
      "Desp": 3947,
      "bath": 3948,
      "icity": 3949,
      "oute": 3950,
      "lying": 3951,
      "iva": 3952,
      "apor": 3953,
      "commission": 3954,
      "oscope": 3955,
      "ylic": 3956,
      "Arab": 3957,
      "floor": 3958,
      "Project": 3959,
      "Mag": 3960,
      "oqu": 3961,
      "uals": 3962,
      "union": 3963,
      "itate": 3964,
      "advent": 3965,
      "trial": 3966,
      "agan": 3967,
      "cannot": 3968,
      "newsp": 3969,
      "location": 3970,
      "middle": 3971,
      "philos": 3972,
      "dream": 3973,
      "gian": 3974,
      "tam": 3975,
      "uate": 3976,
      "alism": 3977,
      "adel": 3978,
      "uments": 3979,
      "endo": 3980,
      "ache": 3981,
      "resist": 3982,
      "cyan": 3983,
      "anthrop": 3984,
      "ioc": 3985,
      "mine": 3986,
      "onian": 3987,
      "alleg": 3988,
      "tock": 3989,
      "ola": 3990,
      "ulous": 3991,
      "abor": 3992,
      "phone": 3993,
      "discovered": 3994,
      "gran": 3995,
      "fee": 3996,
      "arry": 3997,
      "Richard": 3998,
      "Despite": 3999,
      "dod": 4000,
      "ki": 4001,
      "acer": 4002,
      "usive": 4003,
      "brief": 4004,
      "centr": 4005,
      "complex": 4006,
      "glut": 4007,
      "azz": 4008,
      "Bus": 4009,
      "lum": 4010,
      "wild": 4011,
      "inch": 4012,
      "shown": 4013,
      "none": 4014,
      "notes": 4015,
      "attention": 4016,
      "186": 4017,
      "semic": 4018,
      "purch": 4019,
      "travel": 4020,
      "greg": 4021,
      "mia": 4022,
      "vet": 4023,
      "warm": 4024,
      "equip": 4025,
      "beginning": 4026,
      "symbol": 4027,
      "knowledge": 4028,
      "Fran": 4029,
      "fail": 4030,
      "hag": 4031,
      "tas": 4032,
      "attract": 4033,
      "alian": 4034,
      "aco": 4035,
      "opportun": 4036,
      "note": 4037,
      "imeter": 4038,
      "heads": 4039,
      "recording": 4040,
      "increase": 4041,
      "Carol": 4042,
      "quarters": 4043,
      "aes": 4044,
      "dro": 4045,
      "failed": 4046,
      "ko": 4047,
      "inese": 4048,
      "idium": 4049,
      "acted": 4050,
      "meg": 4051,
      "mono": 4052,
      "content": 4053,
      "commit": 4054,
      "shows": 4055,
      "bull": 4056,
      "multi": 4057,
      "Frank": 4058,
      "Canada": 4059,
      "industry": 4060,
      "FA": 4061,
      "Que": 4062,
      "dur": 4063,
      "rare": 4064,
      "sa": 4065,
      "zen": 4066,
      "astern": 4067,
      "sets": 4068,
      "forest": 4069,
      "listed": 4070,
      "hope": 4071,
      "Times": 4072,
      "vice": 4073,
      "xanth": 4074,
      "istry": 4075,
      "unl": 4076,
      "icles": 4077,
      "tous": 4078,
      "lym": 4079,
      "aband": 4080,
      "skin": 4081,
      "wonder": 4082,
      "Japanese": 4083,
      "Pe": 4084,
      "fro": 4085,
      "atives": 4086,
      "altern": 4087,
      "assem": 4088,
      "quality": 4089,
      "ornith": 4090,
      "hearted": 4091,
      "India": 4092,
      "changed": 4093,
      "Oldham": 4094,
      "Har": 4095,
      "President": 4096,
      "cant": 4097,
      "hou": 4098,
      "running": 4099,
      "inte": 4100,
      "image": 4101,
      "deg": 4102,
      "iple": 4103,
      "science": 4104,
      "catch": 4105,
      "continue": 4106,
      "concert": 4107,
      "Tor": 4108,
      "Ver": 4109,
      "fair": 4110,
      "hier": 4111,
      "vag": 4112,
      "winning": 4113,
      "erg": 4114,
      "alize": 4115,
      "chief": 4116,
      "olf": 4117,
      "terr": 4118,
      "concept": 4119,
      "alled": 4120,
      "resid": 4121,
      "news": 4122,
      "copic": 4123,
      "agreed": 4124,
      "90": 4125,
      "Brown": 4126,
      "haw": 4127,
      "sit": 4128,
      "army": 4129,
      "seek": 4130,
      "quite": 4131,
      "rosis": 4132,
      "produce": 4133,
      "damaged": 4134,
      "friends": 4135,
      "Mexico": 4136,
      "Olivier": 4137,
      "Whe": 4138,
      "dict": 4139,
      "neck": 4140,
      "rin": 4141,
      "revol": 4142,
      "advis": 4143,
      "train": 4144,
      "weap": 4145,
      "cert": 4146,
      "required": 4147,
      "sulf": 4148,
      "measure": 4149,
      "investig": 4150,
      "movement": 4151,
      "Vietnam": 4152,
      "Later": 4153,
      "enty": 4154,
      "blast": 4155,
      "carbon": 4156,
      "calcul": 4157,
      "traditional": 4158,
      "fleet": 4159,
      "mixed": 4160,
      "78": 4161,
      "Egypt": 4162,
      "Great": 4163,
      "Mid": 4164,
      "NY": 4165,
      "Val": 4166,
      "Vir": 4167,
      "nob": 4168,
      "ws": 4169,
      "ifer": 4170,
      "slight": 4171,
      "double": 4172,
      "Mon": 4173,
      "Peter": 4174,
      "School": 4175,
      "ii": 4176,
      "kins": 4177,
      "wil": 4178,
      "urt": 4179,
      "prise": 4180,
      "owl": 4181,
      "artist": 4182,
      "acting": 4183,
      "flat": 4184,
      "remaining": 4185,
      "Thomas": 4186,
      "Angel": 4187,
      "initial": 4188,
      "Irish": 4189,
      "Fil": 4190,
      "Many": 4191,
      "pes": 4192,
      "olite": 4193,
      "cosm": 4194,
      "izers": 4195,
      "actor": 4196,
      "disp": 4197,
      "weather": 4198,
      "advant": 4199,
      "mast": 4200,
      "makes": 4201,
      "thet": 4202,
      "asis": 4203,
      "ulf": 4204,
      "rach": 4205,
      "iance": 4206,
      "actyl": 4207,
      "Britain": 4208,
      "practice": 4209,
      "Ap": 4210,
      "iary": 4211,
      "lived": 4212,
      "wid": 4213,
      "stal": 4214,
      "eme": 4215,
      "utch": 4216,
      "subl": 4217,
      "fluor": 4218,
      "Im": 4219,
      "iidae": 4220,
      "kick": 4221,
      "tan": 4222,
      "tip": 4223,
      "eries": 4224,
      "ono": 4225,
      "item": 4226,
      "terms": 4227,
      "iger": 4228,
      "etal": 4229,
      "critical": 4230,
      "soph": 4231,
      "harmon": 4232,
      "rule": 4233,
      "uitar": 4234,
      "Hel": 4235,
      "Hall": 4236,
      "dent": 4237,
      "farm": 4238,
      "gs": 4239,
      "oria": 4240,
      "unde": 4241,
      "uran": 4242,
      "ecto": 4243,
      "istics": 4244,
      "serve": 4245,
      "feature": 4246,
      "drum": 4247,
      "What": 4248,
      "yellow": 4249,
      "Card": 4250,
      "hat": 4251,
      "iop": 4252,
      "nos": 4253,
      "nick": 4254,
      "sides": 4255,
      "ville": 4256,
      "instruct": 4257,
      "unb": 4258,
      "amal": 4259,
      "agree": 4260,
      "percent": 4261,
      "except": 4262,
      "assum": 4263,
      "foreign": 4264,
      "initially": 4265,
      "believe": 4266,
      "Mac": 4267,
      "gate": 4268,
      "itated": 4269,
      "liqu": 4270,
      "additional": 4271,
      "includes": 4272,
      "analy": 4273,
      "source": 4274,
      "Hurricane": 4275,
      "Guitar": 4276,
      "Zeal": 4277,
      "bone": 4278,
      "cm": 4279,
      "si": 4280,
      "viv": 4281,
      "ulating": 4282,
      "plate": 4283,
      "extra": 4284,
      "assa": 4285,
      "ultim": 4286,
      "broadcast": 4287,
      "via": 4288,
      "ateness": 4289,
      "conce": 4290,
      "ifa": 4291,
      "myel": 4292,
      "condition": 4293,
      "oidal": 4294,
      "Union": 4295,
      "direction": 4296,
      "wrong": 4297,
      "Gold": 4298,
      "lig": 4299,
      "rip": 4300,
      "ua": 4301,
      "isl": 4302,
      "itious": 4303,
      "rael": 4304,
      "physical": 4305,
      "80": 4306,
      "Just": 4307,
      "ja": 4308,
      "pom": 4309,
      "inth": 4310,
      "ona": 4311,
      "unim": 4312,
      "lob": 4313,
      "berries": 4314,
      "meant": 4315,
      "paras": 4316,
      "centre": 4317,
      "inside": 4318,
      "fox": 4319,
      "musical": 4320,
      "pattern": 4321,
      "longer": 4322,
      "appears": 4323,
      "silver": 4324,
      "carried": 4325,
      "agreement": 4326,
      "Early": 4327,
      "Er": 4328,
      "Pacific": 4329,
      "rav": 4330,
      "rise": 4331,
      "sail": 4332,
      "alo": 4333,
      "pho": 4334,
      "perfect": 4335,
      "Chinese": 4336,
      "annel": 4337,
      "anks": 4338,
      "larger": 4339,
      "tradition": 4340,
      "happy": 4341,
      "captured": 4342,
      "Zealand": 4343,
      "Str": 4344,
      "mul": 4345,
      "sco": 4346,
      "tto": 4347,
      "trop": 4348,
      "warr": 4349,
      "else": 4350,
      "secut": 4351,
      "cool": 4352,
      "Championship": 4353,
      "studio": 4354,
      "supported": 4355,
      "problems": 4356,
      "Super": 4357,
      "36": 4358,
      "Not": 4359,
      "din": 4360,
      "dal": 4361,
      "gers": 4362,
      "nomin": 4363,
      "rus": 4364,
      "tained": 4365,
      "roid": 4366,
      "traff": 4367,
      "ups": 4368,
      "grat": 4369,
      "2002": 4370,
      "rhiz": 4371,
      "constructed": 4372,
      "meaning": 4373,
      "approximately": 4374,
      "rug": 4375,
      "scler": 4376,
      "ya": 4377,
      "atre": 4378,
      "perhaps": 4379,
      "izations": 4380,
      "diss": 4381,
      "flight": 4382,
      "sons": 4383,
      "require": 4384,
      "bacter": 4385,
      "federal": 4386,
      "cere": 4387,
      "things": 4388,
      "unable": 4389,
      "exhib": 4390,
      "aked": 4391,
      "posing": 4392,
      "dram": 4393,
      "archit": 4394,
      "network": 4395,
      "occurred": 4396,
      "Dr": 4397,
      "gut": 4398,
      "isc": 4399,
      "olig": 4400,
      "ims": 4401,
      "assigned": 4402,
      "ologically": 4403,
      "pyro": 4404,
      "maintain": 4405,
      "married": 4406,
      "reviews": 4407,
      "defeated": 4408,
      "History": 4409,
      "Wheeler": 4410,
      "75": 4411,
      "Awards": 4412,
      "Jin": 4413,
      "So": 4414,
      "Soc": 4415,
      "batter": 4416,
      "nel": 4417,
      "page": 4418,
      "eres": 4419,
      "ativeness": 4420,
      "chr": 4421,
      "beer": 4422,
      "correct": 4423,
      "intended": 4424,
      "desc": 4425,
      "contain": 4426,
      "faced": 4427,
      "audience": 4428,
      "crypto": 4429,
      "Canadian": 4430,
      "meeting": 4431,
      "Hot": 4432,
      "cic": 4433,
      "rating": 4434,
      "iny": 4435,
      "leaf": 4436,
      "chin": 4437,
      "ador": 4438,
      "plans": 4439,
      "sher": 4440,
      "crim": 4441,
      "means": 4442,
      "core": 4443,
      "contempor": 4444,
      "logical": 4445,
      "behav": 4446,
      "becoming": 4447,
      "Navy": 4448,
      "Sing": 4449,
      "UK": 4450,
      "fung": 4451,
      "narr": 4452,
      "uan": 4453,
      "reject": 4454,
      "rob": 4455,
      "lymph": 4456,
      "oles": 4457,
      "emphas": 4458,
      "exc": 4459,
      "udes": 4460,
      "scal": 4461,
      "hook": 4462,
      "students": 4463,
      "morph": 4464,
      "bem": 4465,
      "hors": 4466,
      "za": 4467,
      "toward": 4468,
      "emper": 4469,
      "perm": 4470,
      "illustr": 4471,
      "mole": 4472,
      "tempor": 4473,
      "effort": 4474,
      "sexual": 4475,
      "Africa": 4476,
      "Rose": 4477,
      "nur": 4478,
      "rd": 4479,
      "instr": 4480,
      "tourn": 4481,
      "sust": 4482,
      "estic": 4483,
      "prep": 4484,
      "understand": 4485,
      "ahs": 4486,
      "Assoc": 4487,
      "affect": 4488,
      "royal": 4489,
      "Law": 4490,
      "giving": 4491,
      "hers": 4492,
      "anded": 4493,
      "ionally": 4494,
      "lys": 4495,
      "elic": 4496,
      "uting": 4497,
      "depression": 4498,
      "artment": 4499,
      "angle": 4500,
      "serious": 4501,
      "2000": 4502,
      "clean": 4503,
      "copies": 4504,
      "fifth": 4505,
      "Creek": 4506,
      "living": 4507,
      "today": 4508,
      "acity": 4509,
      "acanth": 4510,
      "semin": 4511,
      "dear": 4512,
      "shed": 4513,
      "observed": 4514,
      "drive": 4515,
      "radi": 4516,
      "oblig": 4517,
      "growth": 4518,
      "document": 4519,
      "destroyed": 4520,
      "economic": 4521,
      "Sciento": 4522,
      "uation": 4523,
      "reme": 4524,
      "express": 4525,
      "spread": 4526,
      "actually": 4527,
      "contro": 4528,
      "Stud": 4529,
      "expected": 4530,
      "influence": 4531,
      "Regiment": 4532,
      "Rachel": 4533,
      "dor": 4534,
      "fine": 4535,
      "wal": 4536,
      "why": 4537,
      "private": 4538,
      "Virgin": 4539,
      "Me": 4540,
      "Tur": 4541,
      "hi": 4542,
      "repe": 4543,
      "leaving": 4544,
      "acad": 4545,
      "adi": 4546,
      "manship": 4547,
      "lik": 4548,
      "colour": 4549,
      "presence": 4550,
      "guitar": 4551,
      "greater": 4552,
      "cultural": 4553,
      "looking": 4554,
      "referred": 4555,
      "screen": 4556,
      "sudden": 4557,
      "ril": 4558,
      "ray": 4559,
      "runs": 4560,
      "tall": 4561,
      "ini": 4562,
      "orrh": 4563,
      "theme": 4564,
      "asper": 4565,
      "ented": 4566,
      "hepat": 4567,
      "esses": 4568,
      "dex": 4569,
      "share": 4570,
      "exped": 4571,
      "ached": 4572,
      "dry": 4573,
      "maxim": 4574,
      "writers": 4575,
      "defense": 4576,
      "ogenesis": 4577,
      "groups": 4578,
      "impact": 4579,
      "defeat": 4580,
      "Charles": 4581,
      "bodies": 4582,
      "1st": 4583,
      "Award": 4584,
      "Mos": 4585,
      "Olym": 4586,
      "Sun": 4587,
      "bind": 4588,
      "fest": 4589,
      "sph": 4590,
      "orch": 4591,
      "iring": 4592,
      "ishes": 4593,
      "clar": 4594,
      "anything": 4595,
      "sched": 4596,
      "phyto": 4597,
      "magn": 4598,
      "ridge": 4599,
      "marked": 4600,
      "analysis": 4601,
      "effects": 4602,
      "FI": 4603,
      "cass": 4604,
      "ll": 4605,
      "abil": 4606,
      "conv": 4607,
      "mostly": 4608,
      "polar": 4609,
      "arsen": 4610,
      "stories": 4611,
      "stitute": 4612,
      "fet": 4613,
      "hog": 4614,
      "kl": 4615,
      "vig": 4616,
      "erc": 4617,
      "chos": 4618,
      "utions": 4619,
      "nother": 4620,
      "feat": 4621,
      "ioid": 4622,
      "1995": 4623,
      "ancing": 4624,
      "Billboard": 4625,
      "hospital": 4626,
      "Dev": 4627,
      "spot": 4628,
      "yan": 4629,
      "abs": 4630,
      "withdraw": 4631,
      "osto": 4632,
      "Chris": 4633,
      "ophyll": 4634,
      "preser": 4635,
      "smaller": 4636,
      "candid": 4637,
      "Light": 4638,
      "bog": 4639,
      "lady": 4640,
      "itz": 4641,
      "irre": 4642,
      "cook": 4643,
      "illery": 4644,
      "iana": 4645,
      "myr": 4646,
      "maid": 4647,
      "Star": 4648,
      "portr": 4649,
      "value": 4650,
      "protein": 4651,
      "metres": 4652,
      "budget": 4653,
      "dated": 4654,
      "oes": 4655,
      "oner": 4656,
      "arter": 4657,
      "het": 4658,
      "isher": 4659,
      "strength": 4660,
      "ophthal": 4661,
      "commod": 4662,
      "contrast": 4663,
      "largely": 4664,
      "osaurus": 4665,
      "straight": 4666,
      "traffic": 4667,
      "Route": 4668,
      "cous": 4669,
      "gi": 4670,
      "jer": 4671,
      "lag": 4672,
      "incorpor": 4673,
      "isk": 4674,
      "stret": 4675,
      "omn": 4676,
      "cod": 4677,
      "anta": 4678,
      "ctor": 4679,
      "string": 4680,
      "aean": 4681,
      "paralle": 4682,
      "uble": 4683,
      "simple": 4684,
      "chester": 4685,
      "types": 4686,
      "Scott": 4687,
      "ranked": 4688,
      "NA": 4689,
      "Off": 4690,
      "takes": 4691,
      "aced": 4692,
      "semis": 4693,
      "mann": 4694,
      "contains": 4695,
      "aired": 4696,
      "rows": 4697,
      "omania": 4698,
      "speech": 4699,
      "greatest": 4700,
      "gods": 4701,
      "escence": 4702,
      "ued": 4703,
      "enge": 4704,
      "adapt": 4705,
      "idia": 4706,
      "ulph": 4707,
      "util": 4708,
      "proposed": 4709,
      "ipp": 4710,
      "opol": 4711,
      "ichthy": 4712,
      "melan": 4713,
      "primary": 4714,
      "33": 4715,
      "Brad": 4716,
      "Hill": 4717,
      "Penn": 4718,
      "Western": 4719,
      "ufact": 4720,
      "wart": 4721,
      "hole": 4722,
      "Under": 4723,
      "transl": 4724,
      "sales": 4725,
      "films": 4726,
      "motor": 4727,
      "dynam": 4728,
      "financial": 4729,
      "Cali": 4730,
      "Since": 4731,
      "cros": 4732,
      "sell": 4733,
      "save": 4734,
      "unte": 4735,
      "toid": 4736,
      "aces": 4737,
      "adic": 4738,
      "uries": 4739,
      "seat": 4740,
      "empl": 4741,
      "brush": 4742,
      "megal": 4743,
      "scenes": 4744,
      "flor": 4745,
      "ports": 4746,
      "atorial": 4747,
      "couple": 4748,
      "Scientology": 4749,
      "Year": 4750,
      "acro": 4751,
      "poet": 4752,
      "ifier": 4753,
      "exact": 4754,
      "ocent": 4755,
      "neutr": 4756,
      "meter": 4757,
      "legisl": 4758,
      "cake": 4759,
      "talk": 4760,
      "begin": 4761,
      "competition": 4762,
      "associated": 4763,
      "Haifa": 4764,
      "48": 4765,
      "Fort": 4766,
      "Tom": 4767,
      "bay": 4768,
      "gum": 4769,
      "oll": 4770,
      "owler": 4771,
      "ighter": 4772,
      "minim": 4773,
      "2016": 4774,
      "Art": 4775,
      "Arch": 4776,
      "tower": 4777,
      "susp": 4778,
      "fighting": 4779,
      "truth": 4780,
      "launched": 4781,
      "Croat": 4782,
      "Russ": 4783,
      "Yo": 4784,
      "bio": 4785,
      "dot": 4786,
      "knot": 4787,
      "tz": 4788,
      "infer": 4789,
      "lose": 4790,
      "const": 4791,
      "ogn": 4792,
      "distr": 4793,
      "graphic": 4794,
      "haem": 4795,
      "officer": 4796,
      "officers": 4797,
      "society": 4798,
      "uncil": 4799,
      "rooms": 4800,
      "satis": 4801,
      "connect": 4802,
      "Parliament": 4803,
      "journal": 4804,
      "suffered": 4805,
      "security": 4806,
      "newspaper": 4807,
      "Association": 4808,
      "Califor": 4809,
      "ih": 4810,
      "migr": 4811,
      "native": 4812,
      "pip": 4813,
      "thers": 4814,
      "atry": 4815,
      "rey": 4816,
      "reas": 4817,
      "ece": 4818,
      "compared": 4819,
      "necessary": 4820,
      "sculpt": 4821,
      "RA": 4822,
      "Vict": 4823,
      "bark": 4824,
      "bond": 4825,
      "attrib": 4826,
      "rear": 4827,
      "accus": 4828,
      "cog": 4829,
      "quiet": 4830,
      "pread": 4831,
      "struck": 4832,
      "auth": 4833,
      "flam": 4834,
      "ption": 4835,
      "feeling": 4836,
      "extreme": 4837,
      "numbers": 4838,
      "purpose": 4839,
      "dollar": 4840,
      "keeper": 4841,
      "indeed": 4842,
      ".’": 4843,
      "Oper": 4844,
      "Qu": 4845,
      "Sov": 4846,
      "onc": 4847,
      "ala": 4848,
      "unh": 4849,
      "icism": 4850,
      "acle": 4851,
      "idity": 4852,
      "absol": 4853,
      "plane": 4854,
      "ellig": 4855,
      "presented": 4856,
      "carry": 4857,
      "tuber": 4858,
      "Oh": 4859,
      "hell": 4860,
      "laugh": 4861,
      "pall": 4862,
      "sick": 4863,
      "tack": 4864,
      "thesis": 4865,
      "hept": 4866,
      "fores": 4867,
      "applic": 4868,
      "shore": 4869,
      "mob": 4870,
      "boats": 4871,
      "ologists": 4872,
      "computer": 4873,
      "1999": 4874,
      "simply": 4875,
      "leader": 4876,
      "lined": 4877,
      "teams": 4878,
      "mountain": 4879,
      "veston": 4880,
      "conducted": 4881,
      "degree": 4882,
      "Ter": 4883,
      "athe": 4884,
      "bass": 4885,
      "fresh": 4886,
      "elop": 4887,
      "amel": 4888,
      "conflict": 4889,
      "pling": 4890,
      "raised": 4891,
      "opath": 4892,
      "iller": 4893,
      "overs": 4894,
      "epic": 4895,
      "cold": 4896,
      "Station": 4897,
      "remember": 4898,
      "joint": 4899,
      "explo": 4900,
      "border": 4901,
      "distinct": 4902,
      "voy": 4903,
      "issued": 4904,
      "lyrics": 4905,
      "Another": 4906,
      "Earth": 4907,
      "Var": 4908,
      "lives": 4909,
      "wig": 4910,
      "aton": 4911,
      "abo": 4912,
      "irs": 4913,
      "coal": 4914,
      "1950": 4915,
      "brain": 4916,
      "substant": 4917,
      "Alice": 4918,
      "potent": 4919,
      "asket": 4920,
      "Israel": 4921,
      "Council": 4922,
      "Bey": 4923,
      "Po": 4924,
      "Res": 4925,
      "cret": 4926,
      "ely": 4927,
      "ffl": 4928,
      "wan": 4929,
      "inian": 4930,
      "icago": 4931,
      "intellig": 4932,
      "ulture": 4933,
      "creation": 4934,
      "archy": 4935,
      "records": 4936,
      "episodes": 4937,
      "evening": 4938,
      "judic": 4939,
      "Galveston": 4940,
      "ML": 4941,
      "Te": 4942,
      "iaceous": 4943,
      "lun": 4944,
      "rend": 4945,
      "tet": 4946,
      "ux": 4947,
      "thi": 4948,
      "alty": 4949,
      "outr": 4950,
      "sten": 4951,
      "forts": 4952,
      "prefer": 4953,
      "Then": 4954,
      "axis": 4955,
      "venue": 4956,
      "numerous": 4957,
      "ogenous": 4958,
      "trees": 4959,
      "attacks": 4960,
      "energy": 4961,
      "thesia": 4962,
      "favour": 4963,
      "ceeded": 4964,
      "property": 4965,
      "California": 4966,
      "Ross": 4967,
      "dub": 4968,
      "gic": 4969,
      "jew": 4970,
      "kak": 4971,
      "uated": 4972,
      "asia": 4973,
      "iti": 4974,
      "phr": 4975,
      "shad": 4976,
      "composed": 4977,
      "overall": 4978,
      "manufact": 4979,
      "acts": 4980,
      "aft": 4981,
      "awarded": 4982,
      "below": 4983,
      "arms": 4984,
      "logist": 4985,
      "starting": 4986,
      "distance": 4987,
      "soldiers": 4988,
      "nuclear": 4989,
      "Jewish": 4990,
      "Mer": 4991,
      "Sy": 4992,
      "cart": 4993,
      "diver": 4994,
      "fans": 4995,
      "gone": 4996,
      "pair": 4997,
      "thir": 4998,
      "unter": 4999,
      "omed": 5000,
      "apper": 5001,
      "coat": 5002,
      "weigh": 5003,
      "doing": 5004,
      "consol": 5005,
      "extended": 5006,
      "domin": 5007,
      "sequence": 5008,
      "tracks": 5009,
      "adelph": 5010,
      "bitt": 5011,
      "ozo": 5012,
      "pep": 5013,
      "isions": 5014,
      "perman": 5015,
      "antip": 5016,
      "exh": 5017,
      "strug": 5018,
      "gency": 5019,
      "carn": 5020,
      "ixon": 5021,
      "model": 5022,
      "allowing": 5023,
      "McC": 5024,
      "demonstr": 5025,
      "Catholic": 5026,
      "integr": 5027,
      "39": 5028,
      "Bel": 5029,
      "tut": 5030,
      "onite": 5031,
      "alog": 5032,
      "unci": 5033,
      "older": 5034,
      "promin": 5035,
      "neur": 5036,
      "pregn": 5037,
      "ultural": 5038,
      "anny": 5039,
      "aphy": 5040,
      "eption": 5041,
      "target": 5042,
      "Camp": 5043,
      "Mal": 5044,
      "Tour": 5045,
      "dut": 5046,
      "inher": 5047,
      "sty": 5048,
      "phobia": 5049,
      "agent": 5050,
      "earned": 5051,
      "owned": 5052,
      "destr": 5053,
      "plement": 5054,
      "ranch": 5055,
      "melod": 5056,
      "sylvan": 5057,
      "commented": 5058,
      "herself": 5059,
      "37": 5060,
      "Cour": 5061,
      "Jo": 5062,
      "gul": 5063,
      "mpt": 5064,
      "task": 5065,
      "antry": 5066,
      "alco": 5067,
      "recomm": 5068,
      "aman": 5069,
      "advan": 5070,
      "seg": 5071,
      "poe": 5072,
      "antal": 5073,
      "clav": 5074,
      "attle": 5075,
      "answer": 5076,
      "zyg": 5077,
      "splen": 5078,
      "gentle": 5079,
      "monger": 5080,
      "76": 5081,
      "Des": 5082,
      "Sever": 5083,
      "Saint": 5084,
      "bread": 5085,
      "dan": 5086,
      "fra": 5087,
      "lies": 5088,
      "riv": 5089,
      "sight": 5090,
      "inity": 5091,
      "univers": 5092,
      "lev": 5093,
      "chance": 5094,
      "adium": 5095,
      "absor": 5096,
      "ocal": 5097,
      "crime": 5098,
      "scale": 5099,
      "mont": 5100,
      "worker": 5101,
      "cerat": 5102,
      "orders": 5103,
      "expans": 5104,
      "directly": 5105,
      "division": 5106,
      "focus": 5107,
      "sweet": 5108,
      "utenberg": 5109,
      "subsequently": 5110,
      "Met": 5111,
      "bury": 5112,
      "ease": 5113,
      "iations": 5114,
      "kat": 5115,
      "wis": 5116,
      "wave": 5117,
      "alph": 5118,
      "imer": 5119,
      "aying": 5120,
      "excit": 5121,
      "oge": 5122,
      "parad": 5123,
      "Chicago": 5124,
      "mata": 5125,
      "Its": 5126,
      "twenty": 5127,
      "cases": 5128,
      "status": 5129,
      "discuss": 5130,
      "treatment": 5131,
      "evolution": 5132,
      "Central": 5133,
      "inspired": 5134,
      "architect": 5135,
      "Mart": 5136,
      "bou": 5137,
      "cen": 5138,
      "cra": 5139,
      "fiction": 5140,
      "gather": 5141,
      "knew": 5142,
      "uto": 5143,
      "wre": 5144,
      "alt": 5145,
      "arium": 5146,
      "armed": 5147,
      "uma": 5148,
      "bean": 5149,
      "overnor": 5150,
      "myst": 5151,
      "award": 5152,
      "Enter": 5153,
      "affected": 5154,
      "onym": 5155,
      "organization": 5156,
      "looked": 5157,
      "wheel": 5158,
      "figures": 5159,
      "vocal": 5160,
      "Battle": 5161,
      "47": 5162,
      "Bra": 5163,
      "Haw": 5164,
      "NO": 5165,
      "Sou": 5166,
      "Squad": 5167,
      "Wood": 5168,
      "ais": 5169,
      "lamp": 5170,
      "phe": 5171,
      "isol": 5172,
      "rever": 5173,
      "lec": 5174,
      "essa": 5175,
      "planned": 5176,
      "ospor": 5177,
      "clin": 5178,
      "cles": 5179,
      "veh": 5180,
      "drug": 5181,
      "broken": 5182,
      "omancy": 5183,
      "services": 5184,
      "circul": 5185,
      "buildings": 5186,
      "paint": 5187,
      "chemical": 5188,
      "otype": 5189,
      "Northern": 5190,
      "cathedral": 5191,
      "Am": 5192,
      "Lady": 5193,
      "Latin": 5194,
      "gab": 5195,
      "hap": 5196,
      "paid": 5197,
      "oring": 5198,
      "removed": 5199,
      "aylor": 5200,
      "exas": 5201,
      "iverpool": 5202,
      "1998": 5203,
      "offered": 5204,
      "Republic": 5205,
      "doubt": 5206,
      "Dep": 5207,
      "Villa": 5208,
      "cet": 5209,
      "pir": 5210,
      "sid": 5211,
      "isted": 5212,
      "quis": 5213,
      "illar": 5214,
      "ophor": 5215,
      "variety": 5216,
      "begins": 5217,
      "Christmas": 5218,
      "bibli": 5219,
      "400": 5220,
      "Bal": 5221,
      "Do": 5222,
      "Mey": 5223,
      "Over": 5224,
      "Sam": 5225,
      "gastro": 5226,
      "hind": 5227,
      "kid": 5228,
      "atical": 5229,
      "ito": 5230,
      "emen": 5231,
      "plain": 5232,
      "iality": 5233,
      "cris": 5234,
      "1930": 5235,
      "athan": 5236,
      "atingly": 5237,
      "aneous": 5238,
      "ashion": 5239,
      "clock": 5240,
      "ographical": 5241,
      "1993": 5242,
      "salt": 5243,
      "Command": 5244,
      "studies": 5245,
      "atrix": 5246,
      "Dj": 5247,
      "Otto": 5248,
      "ez": 5249,
      "gau": 5250,
      "unm": 5251,
      "unen": 5252,
      "unce": 5253,
      "roof": 5254,
      "idol": 5255,
      "idine": 5256,
      "oli": 5257,
      "beach": 5258,
      "opted": 5259,
      "manner": 5260,
      "park": 5261,
      "evil": 5262,
      "letters": 5263,
      "20th": 5264,
      "Alkan": 5265,
      "therefore": 5266,
      "helped": 5267,
      "moder": 5268,
      "casual": 5269,
      "fortun": 5270,
      "schools": 5271,
      "seemed": 5272,
      "Polish": 5273,
      "Second": 5274,
      "immediately": 5275,
      "Several": 5276,
      "49": 5277,
      "Liverpool": 5278,
      "Nixon": 5279,
      "Open": 5280,
      "Rev": 5281,
      "lion": 5282,
      "laid": 5283,
      "sman": 5284,
      "inet": 5285,
      "orship": 5286,
      "asto": 5287,
      "tooth": 5288,
      "quant": 5289,
      "exam": 5290,
      "negot": 5291,
      "articul": 5292,
      "brut": 5293,
      "aws": 5294,
      "franch": 5295,
      "genic": 5296,
      "annual": 5297,
      "solid": 5298,
      "potential": 5299,
      "squad": 5300,
      "risk": 5301,
      "attempted": 5302,
      "NC": 5303,
      "Span": 5304,
      "Texas": 5305,
      "crop": 5306,
      "gust": 5307,
      "pad": 5308,
      "pier": 5309,
      "seed": 5310,
      "uled": 5311,
      "tried": 5312,
      "conver": 5313,
      "convent": 5314,
      "suck": 5315,
      "shape": 5316,
      "movie": 5317,
      "formal": 5318,
      "urous": 5319,
      "burg": 5320,
      "billion": 5321,
      "companies": 5322,
      "completely": 5323,
      "advantage": 5324,
      "bast": 5325,
      "fab": 5326,
      "editor": 5327,
      "icide": 5328,
      "roup": 5329,
      "amor": 5330,
      "trum": 5331,
      "cribe": 5332,
      "brand": 5333,
      "commander": 5334,
      "policy": 5335,
      "micros": 5336,
      "highly": 5337,
      "logic": 5338,
      "attacked": 5339,
      "authority": 5340,
      "Paris": 5341,
      "performances": 5342,
      "baby": 5343,
      "Fowler": 5344,
      "Of": 5345,
      "Somer": 5346,
      "fu": 5347,
      "alter": 5348,
      "store": 5349,
      "proved": 5350,
      "management": 5351,
      "bright": 5352,
      "idean": 5353,
      "lied": 5354,
      "parents": 5355,
      "yline": 5356,
      "poses": 5357,
      "ashed": 5358,
      "poll": 5359,
      "countries": 5360,
      "schiz": 5361,
      "predis": 5362,
      "iasis": 5363,
      "issues": 5364,
      "embry": 5365,
      "Somerset": 5366,
      "3rd": 5367,
      "Tropical": 5368,
      "draft": 5369,
      "hunt": 5370,
      "thm": 5371,
      "university": 5372,
      "conserv": 5373,
      "spur": 5374,
      "cyst": 5375,
      "partner": 5376,
      "Three": 5377,
      "ifications": 5378,
      "consult": 5379,
      "higher": 5380,
      "aurus": 5381,
      "places": 5382,
      "planet": 5383,
      "says": 5384,
      "heavily": 5385,
      "attempts": 5386,
      "producer": 5387,
      "ocratic": 5388,
      "responsible": 5389,
      "beyond": 5390,
      "Mosley": 5391,
      "Back": 5392,
      "Lake": 5393,
      "eer": 5394,
      "eat": 5395,
      "tun": 5396,
      "tag": 5397,
      "tort": 5398,
      "theory": 5399,
      "aming": 5400,
      "sely": 5401,
      "terior": 5402,
      "abilities": 5403,
      "bee": 5404,
      "compound": 5405,
      "athlet": 5406,
      "patron": 5407,
      "patri": 5408,
      "1996": 5409,
      "organized": 5410,
      "advance": 5411,
      "narrow": 5412,
      "sleep": 5413,
      "determined": 5414,
      "Busch": 5415,
      "300": 5416,
      "aed": 5417,
      "hid": 5418,
      "ket": 5419,
      "punct": 5420,
      "tong": 5421,
      "enz": 5422,
      "enth": 5423,
      "itter": 5424,
      "ching": 5425,
      "elly": 5426,
      "oscopy": 5427,
      "crack": 5428,
      "awa": 5429,
      "intim": 5430,
      "genetic": 5431,
      "enetr": 5432,
      "atures": 5433,
      "elev": 5434,
      "square": 5435,
      "citiz": 5436,
      "honor": 5437,
      "Scotland": 5438,
      "territory": 5439,
      "philosoph": 5440,
      "Spanish": 5441,
      "Taylor": 5442,
      "cip": 5443,
      "dock": 5444,
      "jum": 5445,
      "urop": 5446,
      "asm": 5447,
      "ouis": 5448,
      "stones": 5449,
      "accur": 5450,
      "uric": 5451,
      "abeth": 5452,
      "confir": 5453,
      "Their": 5454,
      "expressed": 5455,
      "managed": 5456,
      "ugg": 5457,
      "gled": 5458,
      "calling": 5459,
      "rhin": 5460,
      "showed": 5461,
      "needed": 5462,
      "sarco": 5463,
      "cyclone": 5464,
      "Like": 5465,
      "flex": 5466,
      "hay": 5467,
      "oter": 5468,
      "pous": 5469,
      "zon": 5470,
      "encour": 5471,
      "orient": 5472,
      "theor": 5473,
      "itr": 5474,
      "rope": 5475,
      "acious": 5476,
      "idian": 5477,
      "igan": 5478,
      "ials": 5479,
      "attend": 5480,
      "dermat": 5481,
      "condoms": 5482,
      "medical": 5483,
      "pull": 5484,
      "nearby": 5485,
      "moral": 5486,
      "activities": 5487,
      "Dem": 5488,
      "Lord": 5489,
      "pav": 5490,
      "vess": 5491,
      "orian": 5492,
      "icole": 5493,
      "tot": 5494,
      "ivorous": 5495,
      "agraph": 5496,
      "apter": 5497,
      "illed": 5498,
      "clad": 5499,
      "crimin": 5500,
      "ameter": 5501,
      "frame": 5502,
      "ptic": 5503,
      "omorphic": 5504,
      "African": 5505,
      "sufficient": 5506,
      "opinion": 5507,
      "32": 5508,
      "Del": 5509,
      "Jane": 5510,
      "Water": 5511,
      "lis": 5512,
      "ook": 5513,
      "rival": 5514,
      "trem": 5515,
      "thur": 5516,
      "unin": 5517,
      "lepto": 5518,
      "agram": 5519,
      "usively": 5520,
      "otes": 5521,
      "Infan": 5522,
      "scut": 5523,
      "uster": 5524,
      "engthen": 5525,
      "singer": 5526,
      "appearances": 5527,
      "Common": 5528,
      "generation": 5529,
      "soul": 5530,
      "powerful": 5531,
      "ocyte": 5532,
      "executive": 5533,
      "Infantry": 5534,
      "Fle": 5535,
      "fid": 5536,
      "nat": 5537,
      "ocephal": 5538,
      "rer": 5539,
      "tact": 5540,
      "enne": 5541,
      "chond": 5542,
      "priest": 5543,
      "cloud": 5544,
      "web": 5545,
      "wealth": 5546,
      "ylene": 5547,
      "genus": 5548,
      "typh": 5549,
      "relief": 5550,
      "caly": 5551,
      "semif": 5552,
      "choice": 5553,
      "passion": 5554,
      "refused": 5555,
      "borough": 5556,
      "factor": 5557,
      "iami": 5558,
      "Book": 5559,
      "bottom": 5560,
      "electric": 5561,
      "faith": 5562,
      "selected": 5563,
      "Party": 5564,
      "Soviet": 5565,
      "kish": 5566,
      "kne": 5567,
      "vement": 5568,
      "chon": 5569,
      "eline": 5570,
      "tram": 5571,
      "persu": 5572,
      "excav": 5573,
      "strip": 5574,
      "bler": 5575,
      "brick": 5576,
      "myx": 5577,
      "flash": 5578,
      "grew": 5579,
      "ancient": 5580,
      "establish": 5581,
      "Series": 5582,
      "concluded": 5583,
      "Foot": 5584,
      "dissip": 5585,
      "Bob": 5586,
      "Fin": 5587,
      "Gutenberg": 5588,
      "Live": 5589,
      "Mil": 5590,
      "Six": 5591,
      "ahead": 5592,
      "buc": 5593,
      "dra": 5594,
      "kh": 5595,
      "mile": 5596,
      "upr": 5597,
      "witch": 5598,
      "zing": 5599,
      "incon": 5600,
      "isable": 5601,
      "rophy": 5602,
      "forth": 5603,
      "prompt": 5604,
      "ogon": 5605,
      "epig": 5606,
      "hyster": 5607,
      "flav": 5608,
      "mond": 5609,
      "athus": 5610,
      "sheep": 5611,
      "reality": 5612,
      "historical": 5613,
      "opportunity": 5614,
      "Carolina": 5615,
      "assault": 5616,
      "Virginia": 5617,
      "Pennsylvan": 5618,
      "Ever": 5619,
      "Hum": 5620,
      "dend": 5621,
      "fant": 5622,
      "gaz": 5623,
      "kal": 5624,
      "kar": 5625,
      "nod": 5626,
      "stim": 5627,
      "chant": 5628,
      "ulum": 5629,
      "immer": 5630,
      "improv": 5631,
      "agger": 5632,
      "shel": 5633,
      "spend": 5634,
      "ocrat": 5635,
      "artillery": 5636,
      "mention": 5637,
      "minister": 5638,
      "matches": 5639,
      "reduced": 5640,
      "Through": 5641,
      "scoring": 5642,
      "Germany": 5643,
      "communic": 5644,
      "College": 5645,
      "vocals": 5646,
      "proteins": 5647,
      "rhea": 5648,
      "piano": 5649,
      "horses": 5650,
      "44": 5651,
      "ocean": 5652,
      "rons": 5653,
      "waters": 5654,
      "reign": 5655,
      "chir": 5656,
      "eted": 5657,
      "owed": 5658,
      "undec": 5659,
      "asser": 5660,
      "webs": 5661,
      "nose": 5662,
      "headquarters": 5663,
      "setting": 5664,
      "incident": 5665,
      "pieces": 5666,
      "Eliz": 5667,
      "journey": 5668,
      "respectively": 5669,
      "revealed": 5670,
      "picture": 5671,
      "Film": 5672,
      "Games": 5673,
      "Los": 5674,
      "mak": 5675,
      "march": 5676,
      "tunn": 5677,
      "algia": 5678,
      "orb": 5679,
      "lysis": 5680,
      "essed": 5681,
      "trap": 5682,
      "pharm": 5683,
      "nonym": 5684,
      "kept": 5685,
      "ellar": 5686,
      "preci": 5687,
      "notice": 5688,
      "cysto": 5689,
      "offensive": 5690,
      "backs": 5691,
      "1997": 5692,
      "depict": 5693,
      "student": 5694,
      "holder": 5695,
      "everything": 5696,
      "Colon": 5697,
      "filled": 5698,
      "function": 5699,
      "peaked": 5700,
      "phosph": 5701,
      "declared": 5702,
      "oncé": 5703,
      "Beyoncé": 5704,
      "Ottoman": 5705,
      "Bec": 5706,
      "Miami": 5707,
      "Well": 5708,
      "gloss": 5709,
      "atmos": 5710,
      "rea": 5711,
      "reed": 5712,
      "reception": 5713,
      "chel": 5714,
      "omatic": 5715,
      "forget": 5716,
      "emin": 5717,
      "umer": 5718,
      "umber": 5719,
      "pock": 5720,
      "prest": 5721,
      "cruc": 5722,
      "strik": 5723,
      "187": 5724,
      "immun": 5725,
      "combat": 5726,
      "zzle": 5727,
      "Club": 5728,
      "accepted": 5729,
      "hotel": 5730,
      "Service": 5731,
      "becomes": 5732,
      "Ben": 5733,
      "Nations": 5734,
      "hack": 5735,
      "iel": 5736,
      "tick": 5737,
      "unge": 5738,
      "rook": 5739,
      "leuk": 5740,
      "stating": 5741,
      "prem": 5742,
      "strike": 5743,
      "visual": 5744,
      "addle": 5745,
      "passing": 5746,
      "elected": 5747,
      "basis": 5748,
      "statement": 5749,
      "admium": 5750,
      "technology": 5751,
      "separate": 5752,
      "Meyer": 5753,
      "AI": 5754,
      "Both": 5755,
      "bom": 5756,
      "data": 5757,
      "lass": 5758,
      "sag": 5759,
      "ón": 5760,
      "atically": 5761,
      "unpro": 5762,
      "idge": 5763,
      "trick": 5764,
      "phant": 5765,
      "concentr": 5766,
      "crust": 5767,
      "preced": 5768,
      "aka": 5769,
      "owner": 5770,
      "China": 5771,
      "conditions": 5772,
      "background": 5773,
      "describes": 5774,
      "photograph": 5775,
      "efforts": 5776,
      "certainly": 5777,
      "contemporary": 5778,
      "Pennsylvania": 5779,
      "Out": 5780,
      "Sir": 5781,
      "dust": 5782,
      "fos": 5783,
      "iency": 5784,
      "sau": 5785,
      "tent": 5786,
      "yes": 5787,
      "andr": 5788,
      "christ": 5789,
      "amen": 5790,
      "urer": 5791,
      "usual": 5792,
      "whip": 5793,
      "odor": 5794,
      "ogy": 5795,
      "raid": 5796,
      "illary": 5797,
      "resour": 5798,
      "angi": 5799,
      "politics": 5800,
      "element": 5801,
      "founded": 5802,
      "widely": 5803,
      "accident": 5804,
      "touchdown": 5805,
      "achieved": 5806,
      "Sea": 5807,
      "thousand": 5808,
      "Cross": 5809,
      "Der": 5810,
      "Jose": 5811,
      "Land": 5812,
      "Turn": 5813,
      "crown": 5814,
      "pac": 5815,
      "pant": 5816,
      "iloqu": 5817,
      "ader": 5818,
      "trail": 5819,
      "phase": 5820,
      "whel": 5821,
      "perce": 5822,
      "plastic": 5823,
      "coron": 5824,
      "angular": 5825,
      "veget": 5826,
      "metaph": 5827,
      "belong": 5828,
      "belief": 5829,
      "occupied": 5830,
      "Jackson": 5831,
      "Major": 5832,
      "Squadron": 5833,
      "Museum": 5834,
      "bub": 5835,
      "iad": 5836,
      "sic": 5837,
      "tie": 5838,
      "wine": 5839,
      "wire": 5840,
      "inspir": 5841,
      "unfr": 5842,
      "uniform": 5843,
      "ables": 5844,
      "tris": 5845,
      "agric": 5846,
      "umm": 5847,
      "iae": 5848,
      "strac": 5849,
      "blind": 5850,
      "aware": 5851,
      "Storm": 5852,
      "rede": 5853,
      "tainment": 5854,
      "castle": 5855,
      "sixth": 5856,
      "imental": 5857,
      "typically": 5858,
      "safe": 5859,
      "garden": 5860,
      "DE": 5861,
      "Minn": 5862,
      "rust": 5863,
      "tus": 5864,
      "tight": 5865,
      "anic": 5866,
      "enemy": 5867,
      "aric": 5868,
      "refr": 5869,
      "omata": 5870,
      "olin": 5871,
      "ows": 5872,
      "ieval": 5873,
      "hoe": 5874,
      "vised": 5875,
      "oids": 5876,
      "gymn": 5877,
      "1991": 5878,
      "torped": 5879,
      "Acad": 5880,
      "seems": 5881,
      "beautiful": 5882,
      "featuring": 5883,
      "!”": 5884,
      "Sher": 5885,
      "dens": 5886,
      "gil": 5887,
      "gained": 5888,
      "mim": 5889,
      "nem": 5890,
      "othe": 5891,
      "wen": 5892,
      "unab": 5893,
      "leuco": 5894,
      "iments": 5895,
      "tral": 5896,
      "phren": 5897,
      "ector": 5898,
      "mentioned": 5899,
      "epit": 5900,
      "scot": 5901,
      "monarch": 5902,
      "ophore": 5903,
      "workers": 5904,
      "visited": 5905,
      "placement": 5906,
      "fields": 5907,
      "faces": 5908,
      "county": 5909,
      "resulted": 5910,
      "levels": 5911,
      "Anderson": 5912,
      "xenon": 5913,
      "Because": 5914,
      "BA": 5915,
      "Il": 5916,
      "MS": 5917,
      "bure": 5918,
      "sad": 5919,
      "wet": 5920,
      "roles": 5921,
      "oming": 5922,
      "conference": 5923,
      "estone": 5924,
      "ellate": 5925,
      "resem": 5926,
      "someone": 5927,
      "specim": 5928,
      "deliv": 5929,
      "ogenetic": 5930,
      "titles": 5931,
      "locks": 5932,
      "receive": 5933,
      "combined": 5934,
      "teacher": 5935,
      "residents": 5936,
      "chrys": 5937,
      "Department": 5938,
      "Elizabeth": 5939,
      "Alex": 5940,
      "hen": 5941,
      "iast": 5942,
      "oed": 5943,
      "pinn": 5944,
      "atus": 5945,
      "una": 5946,
      "aser": 5947,
      "asion": 5948,
      "adjust": 5949,
      "uls": 5950,
      "sham": 5951,
      "feud": 5952,
      "collabor": 5953,
      "matous": 5954,
      "inkel": 5955,
      "cloth": 5956,
      "ambul": 5957,
      "1992": 5958,
      "painting": 5959,
      "religion": 5960,
      "Corps": 5961,
      "Braath": 5962,
      "Football": 5963,
      "6th": 5964,
      "Li": 5965,
      "Time": 5966,
      "dors": 5967,
      "nie": 5968,
      "xes": 5969,
      "ype": 5970,
      "thro": 5971,
      "thank": 5972,
      "ania": 5973,
      "anced": 5974,
      "orbit": 5975,
      "stuff": 5976,
      "unkn": 5977,
      "ammon": 5978,
      "comes": 5979,
      "worship": 5980,
      "fled": 5981,
      "compens": 5982,
      "guar": 5983,
      "medic": 5984,
      "captain": 5985,
      "helm": 5986,
      "1994": 5987,
      "possibly": 5988,
      "officially": 5989,
      "appropr": 5990,
      "rights": 5991,
      "holds": 5992,
      "connected": 5993,
      "option": 5994,
      "bishop": 5995,
      "Young": 5996,
      "Court": 5997,
      "dich": 5998,
      "lingly": 5999,
      "nig": 6000,
      "pine": 6001,
      "esota": 6002,
      "ende": 6003,
      "leaves": 6004,
      "outer": 6005,
      "elig": 6006,
      "idin": 6007,
      "aggress": 6008,
      "ationist": 6009,
      "ava": 6010,
      "hyal": 6011,
      "scab": 6012,
      "Italian": 6013,
      "ternal": 6014,
      "identified": 6015,
      "defend": 6016,
      "protest": 6017,
      "listen": 6018,
      "missions": 6019,
      "capture": 6020,
      "recently": 6021,
      "finger": 6022,
      "Congress": 6023,
      "chosen": 6024,
      "Southern": 6025,
      "Minnesota": 6026,
      "34": 6027,
      "Govern": 6028,
      "lb": 6029,
      "lane": 6030,
      "nh": 6031,
      "tang": 6032,
      "uth": 6033,
      "vil": 6034,
      "unique": 6035,
      "height": 6036,
      "convers": 6037,
      "odonto": 6038,
      "quake": 6039,
      "illing": 6040,
      "article": 6041,
      "moid": 6042,
      "sych": 6043,
      "pyr": 6044,
      "troph": 6045,
      "mainly": 6046,
      "Force": 6047,
      "onomy": 6048,
      "detail": 6049,
      "indicate": 6050,
      "ocracy": 6051,
      "dismiss": 6052,
      "rafts": 6053,
      "Queen": 6054,
      "slightly": 6055,
      "district": 6056,
      "Crit": 6057,
      "Center": 6058,
      "aen": 6059,
      "dies": 6060,
      "gir": 6061,
      "iates": 6062,
      "oing": 6063,
      "inus": 6064,
      "atable": 6065,
      "itim": 6066,
      "itarian": 6067,
      "acre": 6068,
      "ules": 6069,
      "ulus": 6070,
      "ummer": 6071,
      "plies": 6072,
      "optim": 6073,
      "parliament": 6074,
      "attended": 6075,
      "fired": 6076,
      "otherapy": 6077,
      "glad": 6078,
      "redis": 6079,
      "mush": 6080,
      "broke": 6081,
      "cribed": 6082,
      "150": 6083,
      "bitter": 6084,
      "alien": 6085,
      "wait": 6086,
      "Townsend": 6087,
      "seasons": 6088,
      "Rosebery": 6089,
      "Smith": 6090,
      "cens": 6091,
      "fare": 6092,
      "tart": 6093,
      "oning": 6094,
      "trag": 6095,
      "poison": 6096,
      "examin": 6097,
      "oppon": 6098,
      "epi": 6099,
      "resc": 6100,
      "flank": 6101,
      "miser": 6102,
      "crete": 6103,
      "metall": 6104,
      "breeding": 6105,
      "domestic": 6106,
      "custom": 6107,
      "infantry": 6108,
      "lux": 6109,
      "drawn": 6110,
      "growing": 6111,
      "existence": 6112,
      "employed": 6113,
      "suddenly": 6114,
      "Dou": 6115,
      "Finkel": 6116,
      "Long": 6117,
      "rud": 6118,
      "uber": 6119,
      "anda": 6120,
      "stip": 6121,
      "idness": 6122,
      "etical": 6123,
      "price": 6124,
      "ogam": 6125,
      "octo": 6126,
      "therm": 6127,
      "boards": 6128,
      "Inter": 6129,
      "grave": 6130,
      "condom": 6131,
      "anyone": 6132,
      "smith": 6133,
      "alkal": 6134,
      "1970": 6135,
      "easy": 6136,
      "soldier": 6137,
      "represented": 6138,
      "influenced": 6139,
      "huge": 6140,
      "Walpole": 6141,
      "Hawai": 6142,
      "Meyerbeer": 6143,
      "Finkelstein": 6144,
      "ABC": 6145,
      "Cr": 6146,
      "Tessa": 6147,
      "Wel": 6148,
      "dang": 6149,
      "eigh": 6150,
      "jet": 6151,
      "oi": 6152,
      "inize": 6153,
      "inches": 6154,
      "umbr": 6155,
      "explic": 6156,
      "opposed": 6157,
      "nonde": 6158,
      "spong": 6159,
      "bob": 6160,
      "aea": 6161,
      "eval": 6162,
      "college": 6163,
      "fool": 6164,
      "ahed": 6165,
      "northeast": 6166,
      "ovic": 6167,
      "gnath": 6168,
      "Shiva": 6169,
      "Mrs": 6170,
      "Blue": 6171,
      "Society": 6172,
      "advanced": 6173,
      "Nicole": 6174,
      "Yue": 6175,
      "cies": 6176,
      "fict": 6177,
      "funct": 6178,
      "jan": 6179,
      "lact": 6180,
      "chur": 6181,
      "lyph": 6182,
      "whit": 6183,
      "compreh": 6184,
      "clam": 6185,
      "ortal": 6186,
      "athers": 6187,
      "butter": 6188,
      "canon": 6189,
      "creating": 6190,
      "guan": 6191,
      "guest": 6192,
      "inking": 6193,
      "engaged": 6194,
      "adding": 6195,
      "grey": 6196,
      "stern": 6197,
      "motion": 6198,
      "titled": 6199,
      "sympath": 6200,
      "primarily": 6201,
      "ettes": 6202,
      "economy": 6203,
      "Adam": 6204,
      "ST": 6205,
      "Up": 6206,
      "bie": 6207,
      "bore": 6208,
      "gra": 6209,
      "jar": 6210,
      "nu": 6211,
      "penn": 6212,
      "sie": 6213,
      "isa": 6214,
      "unco": 6215,
      "toler": 6216,
      "tosis": 6217,
      "amide": 6218,
      "losing": 6219,
      "etically": 6220,
      "vern": 6221,
      "inder": 6222,
      "correspond": 6223,
      "worn": 6224,
      "fuls": 6225,
      "decre": 6226,
      "finish": 6227,
      "capable": 6228,
      "divided": 6229,
      "attered": 6230,
      "reports": 6231,
      "aryng": 6232,
      "administration": 6233,
      "Cal": 6234,
      "Jim": 6235,
      "iative": 6236,
      "vine": 6237,
      "xer": 6238,
      "yph": 6239,
      "thread": 6240,
      "alia": 6241,
      "unv": 6242,
      "accompl": 6243,
      "ilic": 6244,
      "adish": 6245,
      "usal": 6246,
      "prised": 6247,
      "opy": 6248,
      "spons": 6249,
      "disease": 6250,
      "obi": 6251,
      "wool": 6252,
      "posite": 6253,
      "ugal": 6254,
      "steam": 6255,
      "defence": 6256,
      "schol": 6257,
      "ochrom": 6258,
      "results": 6259,
      "holding": 6260,
      "authorities": 6261,
      "sacchar": 6262,
      "memory": 6263,
      "Highway": 6264,
      "uguese": 6265,
      "Captain": 6266,
      "Braathens": 6267,
      "5th": 6268,
      "Dam": 6269,
      "Fur": 6270,
      "Hind": 6271,
      "basket": 6272,
      "cof": 6273,
      "cities": 6274,
      "fashion": 6275,
      "gur": 6276,
      "thunder": 6277,
      "unbe": 6278,
      "reput": 6279,
      "hemo": 6280,
      "otor": 6281,
      "antid": 6282,
      "ogue": 6283,
      "mobil": 6284,
      "earliest": 6285,
      "disci": 6286,
      "intin": 6287,
      "capit": 6288,
      "passes": 6289,
      "returning": 6290,
      "marks": 6291,
      "bones": 6292,
      "northwest": 6293,
      "senior": 6294,
      "professor": 6295,
      "entirely": 6296,
      "feelings": 6297,
      "challenge": 6298,
      "igenous": 6299,
      "4th": 6300,
      "Nes": 6301,
      "dul": 6302,
      "ees": 6303,
      "hob": 6304,
      "rack": 6305,
      "inism": 6306,
      "chim": 6307,
      "accord": 6308,
      "adopted": 6309,
      "ecess": 6310,
      "whis": 6311,
      "peric": 6312,
      "suit": 6313,
      "ayer": 6314,
      "prove": 6315,
      "odd": 6316,
      "crip": 6317,
      "petr": 6318,
      "compass": 6319,
      "tyr": 6320,
      "goes": 6321,
      "buy": 6322,
      "ashes": 6323,
      "1990": 6324,
      "labour": 6325,
      "Johnson": 6326,
      "hydrogen": 6327,
      "yourself": 6328,
      "explained": 6329,
      "experienced": 6330,
      "learned": 6331,
      "argued": 6332,
      "Illin": 6333,
      "Mo": 6334,
      "Spec": 6335,
      "aunt": 6336,
      "cort": 6337,
      "dat": 6338,
      "gast": 6339,
      "mock": 6340,
      "pire": 6341,
      "rural": 6342,
      "wag": 6343,
      "atal": 6344,
      "ouch": 6345,
      "sters": 6346,
      "champion": 6347,
      "ulae": 6348,
      "constit": 6349,
      "plen": 6350,
      "iang": 6351,
      "worthy": 6352,
      "relatively": 6353,
      "180": 6354,
      "legitim": 6355,
      "calls": 6356,
      "cott": 6357,
      "distingu": 6358,
      "continues": 6359,
      "claims": 6360,
      "toxic": 6361,
      "Portuguese": 6362,
      "problem": 6363,
      "prepared": 6364,
      "intensity": 6365,
      "Civil": 6366,
      "Fey": 6367,
      "Louis": 6368,
      "Rad": 6369,
      "Sur": 6370,
      "eup": 6371,
      "gives": 6372,
      "honey": 6373,
      "pand": 6374,
      "pear": 6375,
      "wax": 6376,
      "esque": 6377,
      "adap": 6378,
      "lop": 6379,
      "shut": 6380,
      "quil": 6381,
      "exerc": 6382,
      "icality": 6383,
      "intro": 6384,
      "feed": 6385,
      "leton": 6386,
      "decade": 6387,
      "Thunder": 6388,
      "custo": 6389,
      "request": 6390,
      "brachy": 6391,
      "amino": 6392,
      "shortly": 6393,
      "increasing": 6394,
      "oblast": 6395,
      "historic": 6396,
      "Record": 6397,
      "tournament": 6398,
      "satisf": 6399,
      "Academy": 6400,
      "Government": 6401,
      "Green": 6402,
      "Ocean": 6403,
      "bim": 6404,
      "gib": 6405,
      "haz": 6406,
      "pink": 6407,
      "tide": 6408,
      "tale": 6409,
      "xyl": 6410,
      "edition": 6411,
      "icans": 6412,
      "sta": 6413,
      "accompan": 6414,
      "abama": 6415,
      "irk": 6416,
      "apes": 6417,
      "ifically": 6418,
      "prere": 6419,
      "alling": 6420,
      "boot": 6421,
      "brit": 6422,
      "indig": 6423,
      "forming": 6424,
      "scape": 6425,
      "frig": 6426,
      "retired": 6427,
      "offs": 6428,
      "themes": 6429,
      "writes": 6430,
      "homes": 6431,
      "1986": 6432,
      "resulting": 6433,
      "Engine": 6434,
      "Prince": 6435,
      "dedicated": 6436,
      "debate": 6437,
      "transferred": 6438,
      "Bab": 6439,
      "Bet": 6440,
      "Cast": 6441,
      "Cont": 6442,
      "Direct": 6443,
      "Ge": 6444,
      "Good": 6445,
      "Little": 6446,
      "Spain": 6447,
      "furn": 6448,
      "kitch": 6449,
      "mec": 6450,
      "retr": 6451,
      "itism": 6452,
      "omet": 6453,
      "forec": 6454,
      "loph": 6455,
      "convict": 6456,
      "ibil": 6457,
      "uding": 6458,
      "strengthen": 6459,
      "ideal": 6460,
      "ucing": 6461,
      "oked": 6462,
      "glac": 6463,
      "gyn": 6464,
      "woods": 6465,
      "versions": 6466,
      "galvan": 6467,
      "roads": 6468,
      "battalion": 6469,
      "mounted": 6470,
      "pretty": 6471,
      "officials": 6472,
      "otropic": 6473,
      "Secret": 6474,
      "familiar": 6475,
      "entrance": 6476,
      "Francis": 6477,
      "casualties": 6478,
      "Burn": 6479,
      "Horse": 6480,
      "Mog": 6481,
      "gol": 6482,
      "kg": 6483,
      "lon": 6484,
      "nid": 6485,
      "pace": 6486,
      "pore": 6487,
      "ared": 6488,
      "reaction": 6489,
      "coen": 6490,
      "ifiable": 6491,
      "opathy": 6492,
      "spic": 6493,
      "spark": 6494,
      "aks": 6495,
      "miner": 6496,
      "youth": 6497,
      "transit": 6498,
      "alongside": 6499,
      "platy": 6500,
      "currently": 6501,
      "munic": 6502,
      "Revie": 6503,
      "unknown": 6504,
      "9th": 6505,
      "Tintin": 6506,
      "Zhou": 6507,
      "oke": 6508,
      "pend": 6509,
      "sig": 6510,
      "tav": 6511,
      "recover": 6512,
      "amar": 6513,
      "images": 6514,
      "verte": 6515,
      "artists": 6516,
      "atedly": 6517,
      "corrupt": 6518,
      "noct": 6519,
      "Though": 6520,
      "Andrew": 6521,
      "operated": 6522,
      "swing": 6523,
      "buried": 6524,
      "Leg": 6525,
      "twice": 6526,
      "famous": 6527,
      "layer": 6528,
      "reference": 6529,
      "explain": 6530,
      "dropped": 6531,
      "sanct": 6532,
      "flooding": 6533,
      "Empire": 6534,
      "message": 6535,
      "anasi": 6536,
      "instrument": 6537,
      "Varanasi": 6538,
      "Welsh": 6539,
      "Wat": 6540,
      "dow": 6541,
      "jam": 6542,
      "lake": 6543,
      "ried": 6544,
      "stom": 6545,
      "uously": 6546,
      "vital": 6547,
      "atism": 6548,
      "ission": 6549,
      "andro": 6550,
      "amorph": 6551,
      "aga": 6552,
      "comedy": 6553,
      "blaz": 6554,
      "intel": 6555,
      "atty": 6556,
      "ubs": 6557,
      "decor": 6558,
      "guy": 6559,
      "guil": 6560,
      "cession": 6561,
      "dipl": 6562,
      "supply": 6563,
      "viewers": 6564,
      "volume": 6565,
      "arnia": 6566,
      "soundtrack": 6567,
      "propag": 6568,
      "abandoned": 6569,
      "secutive": 6570,
      "maximum": 6571,
      "Nesbitt": 6572,
      "42": 6573,
      "7th": 6574,
      "Ceres": 6575,
      "Eva": 6576,
      "Oda": 6577,
      "cid": 6578,
      "jaw": 6579,
      "jump": 6580,
      "kare": 6581,
      "kary": 6582,
      "mere": 6583,
      "rand": 6584,
      "infl": 6585,
      "onal": 6586,
      "enathus": 6587,
      "alis": 6588,
      "isers": 6589,
      "lyn": 6590,
      "acou": 6591,
      "cran": 6592,
      "actors": 6593,
      "ideas": 6594,
      "18th": 6595,
      "steel": 6596,
      "german": 6597,
      "valu": 6598,
      "defensive": 6599,
      "scrip": 6600,
      "controlled": 6601,
      "interesting": 6602,
      "projects": 6603,
      "settlement": 6604,
      "challeng": 6605,
      "independent": 6606,
      "Angeles": 6607,
      "Odaenathus": 6608,
      "Dis": 6609,
      "Go": 6610,
      "Post": 6611,
      "Rob": 6612,
      "SR": 6613,
      "Sarnia": 6614,
      "lord": 6615,
      "pachy": 6616,
      "ture": 6617,
      "oni": 6618,
      "ician": 6619,
      "tere": 6620,
      "abstr": 6621,
      "1920": 6622,
      "ophys": 6623,
      "filmed": 6624,
      "newly": 6625,
      "pyram": 6626,
      "council": 6627,
      "follows": 6628,
      "successfully": 6629,
      "shoulder": 6630,
      "arius": 6631,
      "secure": 6632,
      "membr": 6633,
      "walls": 6634,
      "flying": 6635,
      "Records": 6636,
      "individuals": 6637,
      "DuMont": 6638,
      "families": 6639,
      "surrounding": 6640,
      "weapons": 6641,
      "ultimately": 6642,
      "Olympic": 6643,
      "exhaust": 6644,
      "alcohol": 6645,
      "Four": 6646,
      "Lu": 6647,
      "MD": 6648,
      "Orig": 6649,
      "RE": 6650,
      "Simp": 6651,
      "gery": 6652,
      "lich": 6653,
      "mant": 6654,
      "tank": 6655,
      "thin": 6656,
      "thyl": 6657,
      "accommod": 6658,
      "apol": 6659,
      "plag": 6660,
      "avel": 6661,
      "bless": 6662,
      "maha": 6663,
      "desire": 6664,
      "deck": 6665,
      "lection": 6666,
      "legs": 6667,
      "trouble": 6668,
      "trait": 6669,
      "collected": 6670,
      "rainfall": 6671,
      "syllab": 6672,
      "Wilhelm": 6673,
      "parallel": 6674,
      "website": 6675,
      "Illinois": 6676,
      "Horn": 6677,
      "La": 6678,
      "Ram": 6679,
      "cach": 6680,
      "cadmium": 6681,
      "dates": 6682,
      "uph": 6683,
      "acular": 6684,
      "ilation": 6685,
      "ela": 6686,
      "omic": 6687,
      "agers": 6688,
      "constr": 6689,
      "cricket": 6690,
      "iev": 6691,
      "subst": 6692,
      "parent": 6693,
      "nois": 6694,
      "arrive": 6695,
      "gling": 6696,
      "skill": 6697,
      "structures": 6698,
      "restaur": 6699,
      "designated": 6700,
      "finding": 6701,
      "suggests": 6702,
      "Manchester": 6703,
      "criticized": 6704,
      "rophic": 6705,
      "ophyte": 6706,
      "reveal": 6707,
      "phosphor": 6708,
      "powers": 6709,
      "emotional": 6710,
      "Apple": 6711,
      "kakapo": 6712,
      "confirmed": 6713,
      "Even": 6714,
      "Fred": 6715,
      "HI": 6716,
      "Home": 6717,
      "Now": 6718,
      "Wash": 6719,
      "spher": 6720,
      "tens": 6721,
      "inary": 6722,
      "anto": 6723,
      "ensu": 6724,
      "arbit": 6725,
      "asingly": 6726,
      "asters": 6727,
      "sting": 6728,
      "aba": 6729,
      "tril": 6730,
      "agle": 6731,
      "irid": 6732,
      "raise": 6733,
      "opar": 6734,
      "romantic": 6735,
      "corner": 6736,
      "awk": 6737,
      "evac": 6738,
      "semim": 6739,
      "knock": 6740,
      "barbar": 6741,
      "causing": 6742,
      "demand": 6743,
      "salv": 6744,
      "burgh": 6745,
      "albums": 6746,
      "timore": 6747,
      "elessness": 6748,
      "cells": 6749,
      "effective": 6750,
      "sources": 6751,
      "bearing": 6752,
      "improve": 6753,
      "juven": 6754,
      "Washington": 6755,
      "Prod": 6756,
      "bats": 6757,
      "junct": 6758,
      "lou": 6759,
      "sod": 6760,
      "sites": 6761,
      "atum": 6762,
      "orches": 6763,
      "elia": 6764,
      "igerous": 6765,
      "ira": 6766,
      "umed": 6767,
      "cosis": 6768,
      "ogene": 6769,
      "illion": 6770,
      "upt": 6771,
      "dissol": 6772,
      "containing": 6773,
      "matical": 6774,
      "clothes": 6775,
      "politic": 6776,
      "choose": 6777,
      "News": 6778,
      "cheer": 6779,
      "1988": 6780,
      "temple": 6781,
      "battles": 6782,
      "laws": 6783,
      "ponder": 6784,
      "Clark": 6785,
      "dependent": 6786,
      "electronic": 6787,
      "adelphia": 6788,
      "Bol": 6789,
      "Jul": 6790,
      "Omaha": 6791,
      "Som": 6792,
      "Way": 6793,
      "bare": 6794,
      "gastr": 6795,
      "hatch": 6796,
      "sought": 6797,
      "wins": 6798,
      "inhabit": 6799,
      "edar": 6800,
      "enus": 6801,
      "orate": 6802,
      "essential": 6803,
      "impress": 6804,
      "quint": 6805,
      "compo": 6806,
      "complic": 6807,
      "osy": 6808,
      "ieved": 6809,
      "metric": 6810,
      "collap": 6811,
      "Chron": 6812,
      "cann": 6813,
      "visible": 6814,
      "Alabama": 6815,
      "solo": 6816,
      "deploy": 6817,
      "difference": 6818,
      "importance": 6819,
      "burns": 6820,
      "clearly": 6821,
      "popularity": 6822,
      "liber": 6823,
      "companion": 6824,
      "rapidly": 6825,
      "smooth": 6826,
      "promise": 6827,
      "frequently": 6828,
      "brigade": 6829,
      "equipment": 6830,
      "behavior": 6831,
      "Kent": 6832,
      "Mean": 6833,
      "bent": 6834,
      "feder": 6835,
      "lus": 6836,
      "pud": 6837,
      "pell": 6838,
      "rational": 6839,
      "sne": 6840,
      "soft": 6841,
      "inite": 6842,
      "aler": 6843,
      "itud": 6844,
      "itors": 6845,
      "tool": 6846,
      "elabor": 6847,
      "uration": 6848,
      "igraph": 6849,
      "umes": 6850,
      "otion": 6851,
      "appl": 6852,
      "uts": 6853,
      "oped": 6854,
      "histo": 6855,
      "granted": 6856,
      "regions": 6857,
      "remix": 6858,
      "sembly": 6859,
      "singing": 6860,
      "puls": 6861,
      "depth": 6862,
      "scholar": 6863,
      "Form": 6864,
      "camera": 6865,
      "historian": 6866,
      "amphib": 6867,
      "Edward": 6868,
      "wounded": 6869,
      "revolution": 6870,
      "Valley": 6871,
      "liquid": 6872,
      "rejected": 6873,
      "intellect": 6874,
      "53": 6875,
      "DV": 6876,
      "Never": 6877,
      "Pen": 6878,
      "Van": 6879,
      "eleg": 6880,
      "funn": 6881,
      "fibr": 6882,
      "lent": 6883,
      "obe": 6884,
      "pure": 6885,
      "isth": 6886,
      "itous": 6887,
      "itating": 6888,
      "stations": 6889,
      "acies": 6890,
      "heath": 6891,
      "tering": 6892,
      "trim": 6893,
      "precon": 6894,
      "epithe": 6895,
      "describe": 6896,
      "colony": 6897,
      "ubb": 6898,
      "insur": 6899,
      "apply": 6900,
      "plex": 6901,
      "porter": 6902,
      "1960s": 6903,
      "virt": 6904,
      "reaching": 6905,
      "immigr": 6906,
      "Reception": 6907,
      "Perón": 6908,
      "precip": 6909,
      "colonial": 6910,
      "improved": 6911,
      "expert": 6912,
      "slowly": 6913,
      "remarked": 6914,
      "crowd": 6915,
      "environmental": 6916,
      "Helms": 6917,
      "battery": 6918,
      "prominent": 6919,
      "adishu": 6920,
      "Mogadishu": 6921,
      "Fant": 6922,
      "Group": 6923,
      "fret": 6924,
      "hir": 6925,
      "nin": 6926,
      "selling": 6927,
      "tha": 6928,
      "chose": 6929,
      "actress": 6930,
      "olate": 6931,
      "ulose": 6932,
      "impression": 6933,
      "phle": 6934,
      "agency": 6935,
      "emaker": 6936,
      "utional": 6937,
      "iflor": 6938,
      "antil": 6939,
      "pron": 6940,
      "osc": 6941,
      "teeth": 6942,
      "Innis": 6943,
      "fright": 6944,
      "feather": 6945,
      "arrison": 6946,
      "max": 6947,
      "maz": 6948,
      "colum": 6949,
      "buff": 6950,
      "Arthur": 6951,
      "breast": 6952,
      "iently": 6953,
      "equal": 6954,
      "1980s": 6955,
      "1940": 6956,
      "1964": 6957,
      "phenomen": 6958,
      "Week": 6959,
      "admir": 6960,
      "spoke": 6961,
      "Simon": 6962,
      "escape": 6963,
      "Fleet": 6964,
      "Joseph": 6965,
      "Def": 6966,
      "dir": 6967,
      "fier": 6968,
      "gad": 6969,
      "atis": 6970,
      "org": 6971,
      "ori": 6972,
      "isters": 6973,
      "unad": 6974,
      "uncle": 6975,
      "seism": 6976,
      "eting": 6977,
      "beam": 6978,
      "cob": 6979,
      "romy": 6980,
      "ghost": 6981,
      "boys": 6982,
      "indul": 6983,
      "obv": 6984,
      "obsc": 6985,
      "nostic": 6986,
      "drain": 6987,
      "description": 6988,
      "anner": 6989,
      "regarded": 6990,
      "semid": 6991,
      "uality": 6992,
      "males": 6993,
      "highlight": 6994,
      "Assembly": 6995,
      "panto": 6996,
      "Once": 6997,
      "seconds": 6998,
      "possibility": 6999,
      "allows": 7000,
      "sports": 7001,
      "killing": 7002,
      "concern": 7003,
      "memor": 7004,
      "steps": 7005,
      "imagine": 7006,
      "46": 7007,
      "Jour": 7008,
      "Jup": 7009,
      "cing": 7010,
      "dread": 7011,
      "hung": 7012,
      "mers": 7013,
      "rated": 7014,
      "rite": 7015,
      "uge": 7016,
      "zone": 7017,
      "theless": 7018,
      "trin": 7019,
      "ective": 7020,
      "gray": 7021,
      "flies": 7022,
      "decom": 7023,
      "glas": 7024,
      "invent": 7025,
      "breaking": 7026,
      "helic": 7027,
      "Commission": 7028,
      "unner": 7029,
      "maintained": 7030,
      "turb": 7031,
      "squam": 7032,
      "speaking": 7033,
      "seeing": 7034,
      "publication": 7035,
      "Before": 7036,
      "industrial": 7037,
      "chamber": 7038,
      "McCall": 7039,
      "Turner": 7040,
      "kitchen": 7041,
      "Bir": 7042,
      "Night": 7043,
      "Rih": 7044,
      "cyl": 7045,
      "fess": 7046,
      "fought": 7047,
      "vapor": 7048,
      "zed": 7049,
      "lee": 7050,
      "lean": 7051,
      "abled": 7052,
      "rak": 7053,
      "opposition": 7054,
      "spond": 7055,
      "ocular": 7056,
      "assign": 7057,
      "achrom": 7058,
      "posal": 7059,
      "creator": 7060,
      "Argent": 7061,
      "patrol": 7062,
      "serving": 7063,
      "ethn": 7064,
      "supporting": 7065,
      "association": 7066,
      "responsibility": 7067,
      "Hamels": 7068,
      "appeal": 7069,
      "PlayStation": 7070,
      "failure": 7071,
      "Baltimore": 7072,
      "Rihanna": 7073,
      "600": 7074,
      "Bowl": 7075,
      "Eastern": 7076,
      "Max": 7077,
      "Sen": 7078,
      "Your": 7079,
      "gamb": 7080,
      "tat": 7081,
      "trou": 7082,
      "uating": 7083,
      "vy": 7084,
      "arct": 7085,
      "uner": 7086,
      "ungr": 7087,
      "icing": 7088,
      "acter": 7089,
      "accent": 7090,
      "idan": 7091,
      "oline": 7092,
      "imbr": 7093,
      "consecutive": 7094,
      "cox": 7095,
      "comic": 7096,
      "obed": 7097,
      "frank": 7098,
      "pty": 7099,
      "arrival": 7100,
      "contained": 7101,
      "belt": 7102,
      "invasion": 7103,
      "heli": 7104,
      "lograph": 7105,
      "severe": 7106,
      "hammer": 7107,
      "sentence": 7108,
      "Constant": 7109,
      "Short": 7110,
      "commonly": 7111,
      "advoc": 7112,
      "aggreg": 7113,
      "credited": 7114,
      "injury": 7115,
      "debuted": 7116,
      "literature": 7117,
      "temperature": 7118,
      "environment": 7119,
      "Watson": 7120,
      "65": 7121,
      "Cra": 7122,
      "Ox": 7123,
      "Writ": 7124,
      "glos": 7125,
      "hast": 7126,
      "pum": 7127,
      "ration": 7128,
      "sax": 7129,
      "wy": 7130,
      "edkare": 7131,
      "altar": 7132,
      "recur": 7133,
      "iture": 7134,
      "starr": 7135,
      "idic": 7136,
      "urable": 7137,
      "terror": 7138,
      "phyll": 7139,
      "emony": 7140,
      "aya": 7141,
      "propr": 7142,
      "spell": 7143,
      "thermo": 7144,
      "disc": 7145,
      "hymen": 7146,
      "awards": 7147,
      "deser": 7148,
      "pleuro": 7149,
      "singles": 7150,
      "identify": 7151,
      "expanded": 7152,
      "anthro": 7153,
      "balls": 7154,
      "protection": 7155,
      "starts": 7156,
      "details": 7157,
      "paed": 7158,
      "technical": 7159,
      "wedding": 7160,
      "Add": 7161,
      "termine": 7162,
      "consisted": 7163,
      "considerable": 7164,
      "Palest": 7165,
      "sustained": 7166,
      "Djedkare": 7167,
      "Jupiter": 7168,
      "64": 7169,
      "Dest": 7170,
      "cuit": 7171,
      "dum": 7172,
      "mally": 7173,
      "tig": 7174,
      "tender": 7175,
      "vast": 7176,
      "vote": 7177,
      "insect": 7178,
      "arist": 7179,
      "ream": 7180,
      "reform": 7181,
      "chand": 7182,
      "entry": 7183,
      "ulates": 7184,
      "phar": 7185,
      "agin": 7186,
      "perit": 7187,
      "prohib": 7188,
      "acknow": 7189,
      "scand": 7190,
      "interpret": 7191,
      "noon": 7192,
      "atern": 7193,
      "genous": 7194,
      "hound": 7195,
      "doctor": 7196,
      "extensive": 7197,
      "diam": 7198,
      "caul": 7199,
      "oxal": 7200,
      "poster": 7201,
      "marsh": 7202,
      "breath": 7203,
      "Only": 7204,
      "palat": 7205,
      "passage": 7206,
      "ancies": 7207,
      "123": 7208,
      "1947": 7209,
      "fallen": 7210,
      "brach": 7211,
      "systems": 7212,
      "confess": 7213,
      "pilot": 7214,
      "olysis": 7215,
      "spermat": 7216,
      "promoted": 7217,
      "naval": 7218,
      "phyllo": 7219,
      "Torres": 7220,
      "51": 7221,
      "Here": 7222,
      "Hib": 7223,
      "Kore": 7224,
      "Lew": 7225,
      "bapt": 7226,
      "gob": 7227,
      "mund": 7228,
      "pest": 7229,
      "pont": 7230,
      "sno": 7231,
      "sphen": 7232,
      "inos": 7233,
      "enzy": 7234,
      "alg": 7235,
      "unfor": 7236,
      "itative": 7237,
      "ionic": 7238,
      "hemer": 7239,
      "imal": 7240,
      "convin": 7241,
      "pered": 7242,
      "shock": 7243,
      "comed": 7244,
      "assess": 7245,
      "strange": 7246,
      "soil": 7247,
      "fract": 7248,
      "partial": 7249,
      "reduce": 7250,
      "condem": 7251,
      "tonic": 7252,
      "Commun": 7253,
      "faction": 7254,
      "classified": 7255,
      "towns": 7256,
      "hippo": 7257,
      "graded": 7258,
      "connection": 7259,
      "criticism": 7260,
      "circumst": 7261,
      "credit": 7262,
      "appointment": 7263,
      "promotion": 7264,
      "ometrical": 7265,
      "committee": 7266,
      "nominated": 7267,
      "ognath": 7268,
      "alphab": 7269,
      "DVD": 7270,
      "CA": 7271,
      "Cam": 7272,
      "Kh": 7273,
      "Sch": 7274,
      "Sil": 7275,
      "Sol": 7276,
      "bold": 7277,
      "cau": 7278,
      "fond": 7279,
      "glot": 7280,
      "kel": 7281,
      "peck": 7282,
      "penetr": 7283,
      "sque": 7284,
      "unpre": 7285,
      "accum": 7286,
      "igation": 7287,
      "agen": 7288,
      "prime": 7289,
      "nonex": 7290,
      "ocks": 7291,
      "aches": 7292,
      "acea": 7293,
      "flesh": 7294,
      "submar": 7295,
      "cyn": 7296,
      "icker": 7297,
      "mates": 7298,
      "presents": 7299,
      "venge": 7300,
      "ordon": 7301,
      "humans": 7302,
      "wooden": 7303,
      "nerv": 7304,
      "ymph": 7305,
      "1941": 7306,
      "increasingly": 7307,
      "iosity": 7308,
      "praise": 7309,
      "females": 7310,
      "violence": 7311,
      "nitro": 7312,
      "sharp": 7313,
      "negative": 7314,
      "enjoyed": 7315,
      "prepare": 7316,
      "Scottish": 7317,
      "Applewhite": 7318,
      "Fam": 7319,
      "Greek": 7320,
      "Sw": 7321,
      "aire": 7322,
      "bak": 7323,
      "cited": 7324,
      "eury": 7325,
      "enthus": 7326,
      "aring": 7327,
      "unic": 7328,
      "aste": 7329,
      "inger": 7330,
      "omon": 7331,
      "urus": 7332,
      "quit": 7333,
      "moves": 7334,
      "affl": 7335,
      "yllab": 7336,
      "drag": 7337,
      "mail": 7338,
      "derived": 7339,
      "gles": 7340,
      "carp": 7341,
      "aneously": 7342,
      "didn": 7343,
      "delight": 7344,
      "multiple": 7345,
      "1987": 7346,
      "turning": 7347,
      "lawyer": 7348,
      "physi": 7349,
      "Boy": 7350,
      "digital": 7351,
      "acetyl": 7352,
      "Airport": 7353,
      "pleasure": 7354,
      "candidate": 7355,
      "absolute": 7356,
      "43": 7357,
      "Ath": 7358,
      "Bu": 7359,
      "Big": 7360,
      "GA": 7361,
      "Prem": 7362,
      "cash": 7363,
      "fug": 7364,
      "fasc": 7365,
      "harm": 7366,
      "iour": 7367,
      "ji": 7368,
      "pie": 7369,
      "tied": 7370,
      "vide": 7371,
      "zan": 7372,
      "zes": 7373,
      "onist": 7374,
      "enite": 7375,
      "alions": 7376,
      "arab": 7377,
      "lywood": 7378,
      "omes": 7379,
      "emed": 7380,
      "apart": 7381,
      "determine": 7382,
      "atever": 7383,
      "shaped": 7384,
      "neither": 7385,
      "assume": 7386,
      "Institute": 7387,
      "grim": 7388,
      "angers": 7389,
      "compon": 7390,
      "contest": 7391,
      "mature": 7392,
      "sheet": 7393,
      "Italy": 7394,
      "guid": 7395,
      "protected": 7396,
      "dyn": 7397,
      "1970s": 7398,
      "toll": 7399,
      "celer": 7400,
      "significantly": 7401,
      "fixed": 7402,
      "apparent": 7403,
      "Egyptian": 7404,
      "Middle": 7405,
      "Background": 7406,
      "Further": 7407,
      "95": 7408,
      "BBC": 7409,
      "Due": 7410,
      "Each": 7411,
      "FE": 7412,
      "Gall": 7413,
      "Tre": 7414,
      "apod": 7415,
      "jol": 7416,
      "mitted": 7417,
      "sangu": 7418,
      "arin": 7419,
      "thec": 7420,
      "lepid": 7421,
      "stages": 7422,
      "amate": 7423,
      "ulative": 7424,
      "trit": 7425,
      "ivor": 7426,
      "estival": 7427,
      "comfort": 7428,
      "manage": 7429,
      "ucks": 7430,
      "sci": 7431,
      "scap": 7432,
      "fever": 7433,
      "landing": 7434,
      "landfall": 7435,
      "collo": 7436,
      "column": 7437,
      "adequ": 7438,
      "register": 7439,
      "slide": 7440,
      "microm": 7441,
      "belly": 7442,
      "eleven": 7443,
      "affection": 7444,
      "stood": 7445,
      "contrad": 7446,
      "predict": 7447,
      "embark": 7448,
      "1984": 7449,
      "1989": 7450,
      "Forest": 7451,
      "1972": 7452,
      "animals": 7453,
      "seventh": 7454,
      "chapter": 7455,
      "pitched": 7456,
      "contributed": 7457,
      "SAFE": 7458,
      "Croatia": 7459,
      "120": 7460,
      "Cre": 7461,
      "Lock": 7462,
      "Mike": 7463,
      "Sky": 7464,
      "mish": 7465,
      "nect": 7466,
      "nice": 7467,
      "otom": 7468,
      "pug": 7469,
      "pipe": 7470,
      "arious": 7471,
      "unpl": 7472,
      "asse": 7473,
      "stup": 7474,
      "chick": 7475,
      "champ": 7476,
      "acing": 7477,
      "shaw": 7478,
      "quet": 7479,
      "assass": 7480,
      "brass": 7481,
      "monument": 7482,
      "genesis": 7483,
      "append": 7484,
      "inks": 7485,
      "ski": 7486,
      "viewed": 7487,
      "foundation": 7488,
      "leaders": 7489,
      "borne": 7490,
      "equival": 7491,
      "1985": 7492,
      "horiz": 7493,
      "Industr": 7494,
      "iacal": 7495,
      "interested": 7496,
      "spective": 7497,
      "producers": 7498,
      "diplo": 7499,
      "Philadelphia": 7500,
      "exactly": 7501,
      "Operation": 7502,
      "nonymous": 7503,
      "Field": 7504,
      "HMS": 7505,
      "Line": 7506,
      "Ob": 7507,
      "Pop": 7508,
      "Yes": 7509,
      "fs": 7510,
      "frog": 7511,
      "kit": 7512,
      "wolf": 7513,
      "infin": 7514,
      "orious": 7515,
      "theastern": 7516,
      "unqu": 7517,
      "ingen": 7518,
      "leag": 7519,
      "leather": 7520,
      "stable": 7521,
      "illy": 7522,
      "elder": 7523,
      "iday": 7524,
      "ima": 7525,
      "trif": 7526,
      "igu": 7527,
      "agia": 7528,
      "loan": 7529,
      "applied": 7530,
      "proceed": 7531,
      "deities": 7532,
      "odox": 7533,
      "prising": 7534,
      "composition": 7535,
      "clay": 7536,
      "moist": 7537,
      "affil": 7538,
      "grip": 7539,
      "obtain": 7540,
      "intention": 7541,
      "intersect": 7542,
      "ritic": 7543,
      "finals": 7544,
      "presby": 7545,
      "semip": 7546,
      "steep": 7547,
      "lingu": 7548,
      "Anth": 7549,
      "ambod": 7550,
      "1960": 7551,
      "devil": 7552,
      "ocyst": 7553,
      "daily": 7554,
      "gradually": 7555,
      "shoot": 7556,
      "aspects": 7557,
      "recognized": 7558,
      "printed": 7559,
      "assistance": 7560,
      "linked": 7561,
      "olithic": 7562,
      "arranged": 7563,
      "neighbor": 7564,
      "commissioned": 7565,
      "purchased": 7566,
      "Cardiff": 7567,
      "reasons": 7568,
      "fossil": 7569,
      "96": 7570,
      "Abu": 7571,
      "bite": 7572,
      "cence": 7573,
      "wides": 7574,
      "eric": 7575,
      "eno": 7576,
      "rout": 7577,
      "stan": 7578,
      "aments": 7579,
      "adam": 7580,
      "adjac": 7581,
      "trio": 7582,
      "pless": 7583,
      "shark": 7584,
      "exception": 7585,
      "ishable": 7586,
      "spat": 7587,
      "itely": 7588,
      "moor": 7589,
      "notable": 7590,
      "paraph": 7591,
      "monos": 7592,
      "underground": 7593,
      "matically": 7594,
      "decide": 7595,
      "slav": 7596,
      "reading": 7597,
      "pointed": 7598,
      "bands": 7599,
      "facing": 7600,
      "begun": 7601,
      "1944": 7602,
      "tribut": 7603,
      "horror": 7604,
      "everyone": 7605,
      "finds": 7606,
      "freeway": 7607,
      "femin": 7608,
      "programs": 7609,
      "oxygen": 7610,
      "iques": 7611,
      "Michigan": 7612,
      "possession": 7613,
      "Morris": 7614,
      "subsequent": 7615,
      "citizen": 7616,
      "Meanwhile": 7617,
      "Oxford": 7618,
      "Che": 7619,
      "Dutch": 7620,
      "NH": 7621,
      "Swed": 7622,
      "brow": 7623,
      "cine": 7624,
      "eing": 7625,
      "fist": 7626,
      "gory": 7627,
      "kok": 7628,
      "lumin": 7629,
      "mander": 7630,
      "pion": 7631,
      "von": 7632,
      "yield": 7633,
      "encounter": 7634,
      "uncul": 7635,
      "refin": 7636,
      "rebel": 7637,
      "chain": 7638,
      "tron": 7639,
      "emple": 7640,
      "shots": 7641,
      "undes": 7642,
      "disper": 7643,
      "uces": 7644,
      "ints": 7645,
      "hered": 7646,
      "lander": 7647,
      "centric": 7648,
      "contact": 7649,
      "charges": 7650,
      "ificial": 7651,
      "trying": 7652,
      "meteor": 7653,
      "extens": 7654,
      "1990s": 7655,
      "appearing": 7656,
      "losses": 7657,
      "studied": 7658,
      "stands": 7659,
      "divine": 7660,
      "greatly": 7661,
      "araj": 7662,
      "fault": 7663,
      "vulgar": 7664,
      "nucleus": 7665,
      "Mounted": 7666,
      "utenant": 7667,
      "strategy": 7668,
      "Keats": 7669,
      "independence": 7670,
      "session": 7671,
      "criminal": 7672,
      "scheduled": 7673,
      "fictional": 7674,
      ",’": 7675,
      "pag": 7676,
      "ramp": 7677,
      "sang": 7678,
      "tah": 7679,
      "incur": 7680,
      "aris": 7681,
      "lytic": 7682,
      "acto": 7683,
      "entit": 7684,
      "entially": 7685,
      "ully": 7686,
      "ivol": 7687,
      "lover": 7688,
      "plants": 7689,
      "shake": 7690,
      "antib": 7691,
      "undation": 7692,
      "ardo": 7693,
      "acked": 7694,
      "bred": 7695,
      "lipo": 7696,
      "attor": 7697,
      "answ": 7698,
      "ansas": 7699,
      "insula": 7700,
      "cancell": 7701,
      "ropol": 7702,
      "anean": 7703,
      "Album": 7704,
      "innings": 7705,
      "porters": 7706,
      "issance": 7707,
      "getting": 7708,
      "onica": 7709,
      "receiving": 7710,
      "facilities": 7711,
      "iculate": 7712,
      "crypt": 7713,
      "crystall": 7714,
      "agonist": 7715,
      "judge": 7716,
      "Class": 7717,
      "libr": 7718,
      "safety": 7719,
      "performing": 7720,
      "ordinary": 7721,
      "discipl": 7722,
      "accompanied": 7723,
      "41": 7724,
      "Among": 7725,
      "CE": 7726,
      "Slam": 7727,
      "Tru": 7728,
      "caught": 7729,
      "dance": 7730,
      "jazz": 7731,
      "laz": 7732,
      "rst": 7733,
      "rence": 7734,
      "tid": 7735,
      "zinc": 7736,
      "thel": 7737,
      "tough": 7738,
      "andy": 7739,
      "elite": 7740,
      "uli": 7741,
      "ulations": 7742,
      "tres": 7743,
      "pren": 7744,
      "osa": 7745,
      "alls": 7746,
      "roma": 7747,
      "manif": 7748,
      "ears": 7749,
      "strat": 7750,
      "geal": 7751,
      "disco": 7752,
      "display": 7753,
      "attached": 7754,
      "decades": 7755,
      "tym": 7756,
      "calc": 7757,
      "annex": 7758,
      "caps": 7759,
      "legend": 7760,
      "Andy": 7761,
      "succeeded": 7762,
      "diff": 7763,
      "Americans": 7764,
      "rhab": 7765,
      "twin": 7766,
      "antiqu": 7767,
      "km2": 7768,
      "deaths": 7769,
      "easily": 7770,
      "cougar": 7771,
      "istrict": 7772,
      "Steve": 7773,
      "typical": 7774,
      "existing": 7775,
      "producing": 7776,
      "items": 7777,
      "elopment": 7778,
      "atmosphere": 7779,
      "Premier": 7780,
      "Ali": 7781,
      "Da": 7782,
      "Fri": 7783,
      "LM": 7784,
      "SP": 7785,
      "Tim": 7786,
      "Tod": 7787,
      "bought": 7788,
      "dating": 7789,
      "duck": 7790,
      "fas": 7791,
      "hired": 7792,
      "kers": 7793,
      "naph": 7794,
      "pics": 7795,
      "tone": 7796,
      "thre": 7797,
      "onism": 7798,
      "aren": 7799,
      "itory": 7800,
      "ando": 7801,
      "acar": 7802,
      "acres": 7803,
      "olatry": 7804,
      "irrit": 7805,
      "user": 7806,
      "dehy": 7807,
      "plus": 7808,
      "plast": 7809,
      "aved": 7810,
      "aller": 7811,
      "nonper": 7812,
      "prey": 7813,
      "ichol": 7814,
      "orted": 7815,
      "resur": 7816,
      "worry": 7817,
      "oba": 7818,
      "interior": 7819,
      "colleg": 7820,
      "leted": 7821,
      "carb": 7822,
      "ceremony": 7823,
      "consent": 7824,
      "serves": 7825,
      "fluid": 7826,
      "ogeny": 7827,
      "entering": 7828,
      "southwest": 7829,
      "Conference": 7830,
      "closely": 7831,
      "pheric": 7832,
      "settle": 7833,
      "keeping": 7834,
      "plasm": 7835,
      "Minister": 7836,
      "siphon": 7837,
      "Final": 7838,
      "Hart": 7839,
      "Pit": 7840,
      "Video": 7841,
      "dun": 7842,
      "gom": 7843,
      "gale": 7844,
      "ients": 7845,
      "jib": 7846,
      "lins": 7847,
      "nud": 7848,
      "sof": 7849,
      "taw": 7850,
      "tier": 7851,
      "uncl": 7852,
      "ungu": 7853,
      "itically": 7854,
      "ionist": 7855,
      "channel": 7856,
      "ilian": 7857,
      "elimin": 7858,
      "ulent": 7859,
      "ivism": 7860,
      "igg": 7861,
      "etime": 7862,
      "concrete": 7863,
      "deleg": 7864,
      "plasty": 7865,
      "antine": 7866,
      "excell": 7867,
      "eps": 7868,
      "scen": 7869,
      "ateral": 7870,
      "cycle": 7871,
      "relate": 7872,
      "Ann": 7873,
      "smile": 7874,
      "switch": 7875,
      "providing": 7876,
      "leads": 7877,
      "locations": 7878,
      "laud": 7879,
      "thorough": 7880,
      "establishment": 7881,
      "combination": 7882,
      "sacr": 7883,
      "changing": 7884,
      "Guard": 7885,
      "stopped": 7886,
      "benefit": 7887,
      "tometer": 7888,
      "institution": 7889,
      "permanent": 7890,
      "Between": 7891,
      "56": 7892,
      "Jon": 7893,
      "Lev": 7894,
      "More": 7895,
      "Rog": 7896,
      "Sal": 7897,
      "apost": 7898,
      "loud": 7899,
      "anism": 7900,
      "unse": 7901,
      "heat": 7902,
      "trache": 7903,
      "appreci": 7904,
      "iston": 7905,
      "utic": 7906,
      "shif": 7907,
      "expression": 7908,
      "iah": 7909,
      "iales": 7910,
      "orts": 7911,
      "indec": 7912,
      "weet": 7913,
      "worms": 7914,
      "sert": 7915,
      "declined": 7916,
      "appet": 7917,
      "struction": 7918,
      "opera": 7919,
      "secondary": 7920,
      "rhod": 7921,
      "volunte": 7922,
      "magne": 7923,
      "developing": 7924,
      "1981": 7925,
      "campus": 7926,
      "infect": 7927,
      "drawing": 7928,
      "coup": 7929,
      "painted": 7930,
      "hardly": 7931,
      "races": 7932,
      "ublican": 7933,
      "watched": 7934,
      "Barrow": 7935,
      "occasionally": 7936,
      "agogue": 7937,
      "Vietnamese": 7938,
      "tubercul": 7939,
      "intelligence": 7940,
      "Cate": 7941,
      "Cambod": 7942,
      "Dani": 7943,
      "FG": 7944,
      "Gulf": 7945,
      "Gordon": 7946,
      "Ho": 7947,
      "Haven": 7948,
      "Nathan": 7949,
      "gium": 7950,
      "iably": 7951,
      "mou": 7952,
      "museum": 7953,
      "vary": 7954,
      "ynam": 7955,
      "eda": 7956,
      "edom": 7957,
      "reim": 7958,
      "recr": 7959,
      "stag": 7960,
      "aciously": 7961,
      "trium": 7962,
      "irrig": 7963,
      "ectomies": 7964,
      "apers": 7965,
      "undel": 7966,
      "cried": 7967,
      "preme": 7968,
      "disput": 7969,
      "uret": 7970,
      "herb": 7971,
      "icking": 7972,
      "centuries": 7973,
      "fount": 7974,
      "hoo": 7975,
      "medium": 7976,
      "legraph": 7977,
      "views": 7978,
      "limit": 7979,
      "heaven": 7980,
      "hetero": 7981,
      "shooting": 7982,
      "involve": 7983,
      "sensu": 7984,
      "encing": 7985,
      "happen": 7986,
      "indicated": 7987,
      "restrict": 7988,
      "witness": 7989,
      "antimony": 7990,
      "kilometr": 7991,
      "xyz": 7992,
      "discovery": 7993,
      "About": 7994,
      "bronch": 7995,
      "spiritual": 7996,
      "regarding": 7997,
      "destruction": 7998,
      "Thunderbirds": 7999,
      "55": 8000,
      "AR": 8001,
      "Down": 8002,
      "Greg": 8003,
      "dos": 8004,
      "gence": 8005,
      "math": 8006,
      "inidae": 8007,
      "onin": 8008,
      "onous": 8009,
      "ares": 8010,
      "arith": 8011,
      "aristo": 8012,
      "unbl": 8013,
      "sts": 8014,
      "iler": 8015,
      "este": 8016,
      "proportion": 8017,
      "shor": 8018,
      "shirt": 8019,
      "manip": 8020,
      "grade": 8021,
      "rell": 8022,
      "roughly": 8023,
      "tomb": 8024,
      "patch": 8025,
      "deliver": 8026,
      "deliber": 8027,
      "factory": 8028,
      "cotton": 8029,
      "realize": 8030,
      "falls": 8031,
      "audi": 8032,
      "memorial": 8033,
      "1939": 8034,
      "difficulty": 8035,
      "approached": 8036,
      "experiment": 8037,
      "participated": 8038,
      "remainder": 8039,
      "neighbour": 8040,
      "briefly": 8041,
      "Athlet": 8042,
      "Far": 8043,
      "Festival": 8044,
      "Gard": 8045,
      "Girl": 8046,
      "KLM": 8047,
      "Naz": 8048,
      "PA": 8049,
      "Revolution": 8050,
      "Upon": 8051,
      "lamb": 8052,
      "natur": 8053,
      "plow": 8054,
      "pile": 8055,
      "penny": 8056,
      "rates": 8057,
      "uf": 8058,
      "vens": 8059,
      "throat": 8060,
      "anil": 8061,
      "unam": 8062,
      "unfl": 8063,
      "reward": 8064,
      "chanc": 8065,
      "acr": 8066,
      "ulatory": 8067,
      "abc": 8068,
      "ifol": 8069,
      "pring": 8070,
      "unday": 8071,
      "opal": 8072,
      "inely": 8073,
      "elli": 8074,
      "bral": 8075,
      "serial": 8076,
      "yls": 8077,
      "atted": 8078,
      "missing": 8079,
      "cym": 8080,
      "rels": 8081,
      "charged": 8082,
      "committed": 8083,
      "clos": 8084,
      "polic": 8085,
      "download": 8086,
      "handed": 8087,
      "longest": 8088,
      "passeng": 8089,
      "milk": 8090,
      "17th": 8091,
      "squir": 8092,
      "basic": 8093,
      "silic": 8094,
      "grounds": 8095,
      "1942": 8096,
      "bolt": 8097,
      "chorus": 8098,
      "distribution": 8099,
      "junction": 8100,
      "thirty": 8101,
      "dehyde": 8102,
      "130": 8103,
      "NBA": 8104,
      "UN": 8105,
      "bang": 8106,
      "caf": 8107,
      "fog": 8108,
      "lust": 8109,
      "map": 8110,
      "mitt": 8111,
      "incess": 8112,
      "onium": 8113,
      "esthesia": 8114,
      "orrhea": 8115,
      "aca": 8116,
      "acceler": 8117,
      "elo": 8118,
      "ulator": 8119,
      "abund": 8120,
      "agas": 8121,
      "eton": 8122,
      "istle": 8123,
      "cole": 8124,
      "code": 8125,
      "pler": 8126,
      "prud": 8127,
      "span": 8128,
      "enda": 8129,
      "overe": 8130,
      "1918": 8131,
      "ieve": 8132,
      "epid": 8133,
      "ureter": 8134,
      "enses": 8135,
      "button": 8136,
      "medieval": 8137,
      "counters": 8138,
      "odynam": 8139,
      "12th": 8140,
      "equil": 8141,
      "turns": 8142,
      "tribes": 8143,
      "aerob": 8144,
      "arthro": 8145,
      "Coast": 8146,
      "happened": 8147,
      "quinqu": 8148,
      "vita": 8149,
      "teenth": 8150,
      "picked": 8151,
      "responded": 8152,
      "solemn": 8153,
      "spacing": 8154,
      "789": 8155,
      "Studios": 8156,
      "Russian": 8157,
      "mobile": 8158,
      "1950s": 8159,
      "Entertainment": 8160,
      "Sherlock": 8161,
      "Crazy": 8162,
      "widespread": 8163,
      "kilometres": 8164,
      "700": 8165,
      "94": 8166,
      "Avenue": 8167,
      "Bish": 8168,
      "Bost": 8169,
      "Bridge": 8170,
      "Crown": 8171,
      "cave": 8172,
      "hul": 8173,
      "iper": 8174,
      "mour": 8175,
      "muck": 8176,
      "inform": 8177,
      "inoid": 8178,
      "anter": 8179,
      "atric": 8180,
      "alized": 8181,
      "icist": 8182,
      "reper": 8183,
      "itant": 8184,
      "leuc": 8185,
      "chat": 8186,
      "chord": 8187,
      "usk": 8188,
      "whatever": 8189,
      "utz": 8190,
      "deed": 8191,
      "osed": 8192,
      "keys": 8193,
      "clic": 8194,
      "eping": 8195,
      "aure": 8196,
      "resign": 8197,
      "grant": 8198,
      "intense": 8199,
      "offers": 8200,
      "ceremon": 8201,
      "invited": 8202,
      "willing": 8203,
      "personnel": 8204,
      "1968": 8205,
      "1969": 8206,
      "Mario": 8207,
      "kerat": 8208,
      "Boise": 8209,
      "rupted": 8210,
      "boxes": 8211,
      "honour": 8212,
      "Muslim": 8213,
      "discussion": 8214,
      "Williams": 8215,
      "principal": 8216,
      "People": 8217,
      "System": 8218,
      "poetry": 8219,
      "Lewis": 8220,
      "Today": 8221,
      "Boston": 8222,
      "Jain": 8223,
      "Mat": 8224,
      "Mah": 8225,
      "Nev": 8226,
      "Wind": 8227,
      "bip": 8228,
      "hn": 8229,
      "uz": 8230,
      "uros": 8231,
      "wrest": 8232,
      "yd": 8233,
      "thorn": 8234,
      "orr": 8235,
      "itage": 8236,
      "tod": 8237,
      "stir": 8238,
      "championship": 8239,
      "amn": 8240,
      "implement": 8241,
      "trid": 8242,
      "phras": 8243,
      "prol": 8244,
      "dee": 8245,
      "aints": 8246,
      "ostom": 8247,
      "roman": 8248,
      "ocard": 8249,
      "ockey": 8250,
      "ellite": 8251,
      "liked": 8252,
      "itionally": 8253,
      "desert": 8254,
      "ritual": 8255,
      "Chel": 8256,
      "expand": 8257,
      "circular": 8258,
      "haemat": 8259,
      "horr": 8260,
      "1975": 8261,
      "worldwide": 8262,
      "papers": 8263,
      "clubs": 8264,
      "burning": 8265,
      "tells": 8266,
      "teaching": 8267,
      "Republican": 8268,
      "descend": 8269,
      "Martin": 8270,
      "torpedo": 8271,
      "!\"": 8272,
      "#$": 8273,
      "%&": 8274,
      "'(": 8275,
      ")*": 8276,
      "+,": 8277,
      "-.": 8278,
      "/:": 8279,
      "0123": 8280,
      "6789": 8281,
      ";<": 8282,
      "=>": 8283,
      "?@": 8284,
      "Baker": 8285,
      "Cole": 8286,
      "Evita": 8287,
      "Jes": 8288,
      "JKLM": 8289,
      "LI": 8290,
      "Lie": 8291,
      "PQ": 8292,
      "Prot": 8293,
      "Rh": 8294,
      "Rail": 8295,
      "RST": 8296,
      "Tele": 8297,
      "UT": 8298,
      "UV": 8299,
      "WX": 8300,
      "YZ": 8301,
      "[\\": 8302,
      "]^": 8303,
      "`{": 8304,
      "dac": 8305,
      "epo": 8306,
      "jub": 8307,
      "lace": 8308,
      "qrst": 8309,
      "wxyz": 8310,
      "|}": 8311,
      "ÂȘ": 8312,
      "ÎÂȘ": 8313,
      "âș": 8314,
      "îâș": 8315,
      "ĂÎÂȘ": 8316,
      "ăîâș": 8317,
      "țĂÎÂȘ": 8318,
      "threw": 8319,
      "recept": 8320,
      "chet": 8321,
      "waste": 8322,
      "peris": 8323,
      "deer": 8324,
      "opqrst": 8325,
      "ialist": 8326,
      "ialism": 8327,
      "ghij": 8328,
      "assert": 8329,
      "soap": 8330,
      "bric": 8331,
      "meal": 8332,
      "acher": 8333,
      "flights": 8334,
      "fring": 8335,
      "retire": 8336,
      "Champion": 8337,
      "lette": 8338,
      "ailing": 8339,
      "choir": 8340,
      "defghij": 8341,
      "twel": 8342,
      "ctomy": 8343,
      "1965": 8344,
      "1974": 8345,
      "cultiv": 8346,
      "mnopqrst": 8347,
      "acquired": 8348,
      "habitat": 8349,
      "promised": 8350,
      "456789": 8351,
      "uvwxyz": 8352,
      "Magazine": 8353,
      "klmnopqrst": 8354,
      "authors": 8355,
      "NOPQ": 8356,
      "DEFG": 8357,
      "endeav": 8358,
      "mushroom": 8359,
      "ABCDEFG": 8360,
      "adapted": 8361,
      "HIJKLM": 8362,
      "abcdefghij": 8363,
      "!\"#$": 8364,
      "%&'(": 8365,
      ")*+,": 8366,
      "-./:": 8367,
      "0123456789": 8368,
      ";<=>": 8369,
      "?@[\\": 8370,
      "RSTUV": 8371,
      "WXYZ": 8372,
      "`{|}": 8373,
      "ăîâșțĂÎÂȘ": 8374,
      "uvwxyzABCDEFG": 8375,
      "klmnopqrstuvwxyzABCDEFG": 8376,
      "NOPQRSTUV": 8377,
      "HIJKLMNOPQRSTUV": 8378,
      "abcdefghijklmnopqrstuvwxyzABCDEFG": 8379,
      "!\"#$%&'(": 8380,
      ")*+,-./:": 8381,
      "0123456789abcdefghijklmnopqrstuvwxyzABCDEFG": 8382,
      ";<=>?@[\\": 8383,
      "`{|}~": 8384,
      "ăîâșțĂÎÂȘȚ": 8385,
      "HIJKLMNOPQRSTUVWXYZ": 8386,
      "!\"#$%&'()*+,-./:": 8387,
      "0123456789abcdefghijklmnopqrstuvwxyzABCDEFGHIJKLMNOPQRSTUVWXYZ": 8388,
      ";<=>?@[\\]^": 8389,
      "!\"#$%&'()*+,-./:;<=>?@[\\]^": 8390,
      "8th": 8391,
      "Ban": 8392,
      "Bos": 8393,
      "Domin": 8394,
      "Mass": 8395,
      "Public": 8396,
      "Rome": 8397,
      "Temple": 8398,
      "dio": 8399,
      "divers": 8400,
      "eud": 8401,
      "file": 8402,
      "gag": 8403,
      "jut": 8404,
      "lash": 8405,
      "pau": 8406,
      "sword": 8407,
      "tailed": 8408,
      "wich": 8409,
      "ánh": 8410,
      "āda": 8411,
      "islands": 8412,
      "ados": 8413,
      "trical": 8414,
      "consc": 8415,
      "confront": 8416,
      "dew": 8417,
      "planning": 8418,
      "iffer": 8419,
      "avis": 8420,
      "antif": 8421,
      "prae": 8422,
      "mented": 8423,
      "geon": 8424,
      "boom": 8425,
      "pton": 8426,
      "icked": 8427,
      "arrest": 8428,
      "ophile": 8429,
      "oldest": 8430,
      "cars": 8431,
      "afterwards": 8432,
      "remn": 8433,
      "aze": 8434,
      "queen": 8435,
      "valley": 8436,
      "panel": 8437,
      "explos": 8438,
      "filming": 8439,
      "Commander": 8440,
      "stomat": 8441,
      "lasted": 8442,
      "petition": 8443,
      "basin": 8444,
      "anticip": 8445,
      "everybody": 8446,
      "zeal": 8447,
      "atrical": 8448,
      "Juan": 8449,
      "victim": 8450,
      "yria": 8451,
      "argue": 8452,
      "populations": 8453,
      "ruled": 8454,
      "defined": 8455,
      "throwing": 8456,
      "bringing": 8457,
      "methods": 8458,
      "weapon": 8459,
      "expansion": 8460,
      "paintings": 8461,
      "dissipated": 8462,
      "premier": 8463,
      "Khánh": 8464,
      "EC": 8465,
      "Fox": 8466,
      "Jurch": 8467,
      "Jamal": 8468,
      "NL": 8469,
      "bah": 8470,
      "dual": 8471,
      "iors": 8472,
      "kines": 8473,
      "nan": 8474,
      "ners": 8475,
      "punt": 8476,
      "anap": 8477,
      "ariness": 8478,
      "unsp": 8479,
      "tood": 8480,
      "eli": 8481,
      "amber": 8482,
      "ido": 8483,
      "iders": 8484,
      "urate": 8485,
      "abella": 8486,
      "posure": 8487,
      "appreh": 8488,
      "coin": 8489,
      "proc": 8490,
      "ifiers": 8491,
      "actual": 8492,
      "strict": 8493,
      "scro": 8494,
      "evident": 8495,
      "mathe": 8496,
      "decol": 8497,
      "canal": 8498,
      "Stone": 8499,
      "superior": 8500,
      "inesses": 8501,
      "pyth": 8502,
      "diet": 8503,
      "armor": 8504,
      "solar": 8505,
      "timber": 8506,
      "treas": 8507,
      "plicate": 8508,
      "brah": 8509,
      "strongly": 8510,
      "chemistry": 8511,
      "chromat": 8512,
      "split": 8513,
      "massive": 8514,
      "Songs": 8515,
      "recognize": 8516,
      "shared": 8517,
      "assistant": 8518,
      "catech": 8519,
      "weakened": 8520,
      "thousands": 8521,
      "surrounded": 8522,
      "certified": 8523,
      "MacLe": 8524,
      "controvers": 8525,
      "leagues": 8526,
      "District": 8527,
      "Five": 8528,
      "Jones": 8529,
      "Sha": 8530,
      "Tenny": 8531,
      "mug": 8532,
      "rant": 8533,
      "ratt": 8534,
      "render": 8535,
      "thumb": 8536,
      "anx": 8537,
      "untr": 8538,
      "replace": 8539,
      "recovered": 8540,
      "ello": 8541,
      "amoe": 8542,
      "secr": 8543,
      "iri": 8544,
      "perip": 8545,
      "deuter": 8546,
      "sha": 8547,
      "quare": 8548,
      "opisth": 8549,
      "illes": 8550,
      "overwhel": 8551,
      "asts": 8552,
      "strum": 8553,
      "meat": 8554,
      "firing": 8555,
      "maj": 8556,
      "founder": 8557,
      "decline": 8558,
      "canth": 8559,
      "Stan": 8560,
      "capacity": 8561,
      "ontal": 8562,
      "Also": 8563,
      "consists": 8564,
      "ographically": 8565,
      "iker": 8566,
      "brood": 8567,
      "otox": 8568,
      "dominated": 8569,
      "gets": 8570,
      "provides": 8571,
      "flux": 8572,
      "facts": 8573,
      "locked": 8574,
      "1946": 8575,
      "thyro": 8576,
      "somat": 8577,
      "elessly": 8578,
      "transc": 8579,
      "ulls": 8580,
      "USA": 8581,
      "duod": 8582,
      "technique": 8583,
      "criptions": 8584,
      "sensit": 8585,
      "walking": 8586,
      "Brian": 8587,
      "Science": 8588,
      "phrase": 8589,
      "Throughout": 8590,
      "delivered": 8591,
      "attorney": 8592,
      "Tennyson": 8593,
      "800": 8594,
      "Dubl": 8595,
      "Mem": 8596,
      "MTV": 8597,
      "Warr": 8598,
      "dash": 8599,
      "goss": 8600,
      "iator": 8601,
      "mack": 8602,
      "scrib": 8603,
      "tauto": 8604,
      "vap": 8605,
      "winn": 8606,
      "inaug": 8607,
      "alc": 8608,
      "unpar": 8609,
      "sees": 8610,
      "forests": 8611,
      "etics": 8612,
      "emaking": 8613,
      "umen": 8614,
      "shift": 8615,
      "oso": 8616,
      "ibilities": 8617,
      "grap": 8618,
      "ometers": 8619,
      "worst": 8620,
      "noting": 8621,
      "intent": 8622,
      "ignor": 8623,
      "landed": 8624,
      "driven": 8625,
      "glu": 8626,
      "gler": 8627,
      "rowed": 8628,
      "Head": 8629,
      "guess": 8630,
      "charter": 8631,
      "commem": 8632,
      "selen": 8633,
      "Arts": 8634,
      "palm": 8635,
      "160": 8636,
      "label": 8637,
      "thorac": 8638,
      "amental": 8639,
      "sequences": 8640,
      "Columb": 8641,
      "judg": 8642,
      "psycho": 8643,
      "platin": 8644,
      "competitions": 8645,
      "accused": 8646,
      "rules": 8647,
      "separated": 8648,
      "occupation": 8649,
      "secured": 8650,
      "Simone": 8651,
      "Foundation": 8652,
      "archaeological": 8653,
      "dodec": 8654,
      "assumed": 8655,
      "Turkish": 8656,
      "knots": 8657,
      "athletes": 8658,
      "Liu": 8659,
      "Dublin": 8660,
      "54": 8661,
      "61": 8662,
      "Area": 8663,
      "Bart": 8664,
      "Hosp": 8665,
      "Ka": 8666,
      "Kang": 8667,
      "Nichol": 8668,
      "Rol": 8669,
      "cinn": 8670,
      "gos": 8671,
      "hide": 8672,
      "iological": 8673,
      "mold": 8674,
      "tul": 8675,
      "wants": 8676,
      "thic": 8677,
      "anac": 8678,
      "althy": 8679,
      "ilton": 8680,
      "eland": 8681,
      "fored": 8682,
      "ecraft": 8683,
      "estate": 8684,
      "odern": 8685,
      "illas": 8686,
      "ibbean": 8687,
      "1919": 8688,
      "induct": 8689,
      "grain": 8690,
      "grace": 8691,
      "drama": 8692,
      "derm": 8693,
      "cancer": 8694,
      "rowing": 8695,
      "goose": 8696,
      "creature": 8697,
      "ropic": 8698,
      "curs": 8699,
      "anni": 8700,
      "atories": 8701,
      "somewhat": 8702,
      "survey": 8703,
      "issip": 8704,
      "End": 8705,
      "catal": 8706,
      "catalog": 8707,
      "placing": 8708,
      "approved": 8709,
      "1966": 8710,
      "fortune": 8711,
      "battalions": 8712,
      "paul": 8713,
      "younger": 8714,
      "1952": 8715,
      "introduction": 8716,
      "chapel": 8717,
      "categor": 8718,
      "understood": 8719,
      "windows": 8720,
      "omatous": 8721,
      "adventure": 8722,
      "emperor": 8723,
      "lysses": 8724,
      "expedition": 8725,
      "shadow": 8726,
      "appropriate": 8727,
      "Production": 8728,
      "Family": 8729,
      "Bas": 8730,
      "Band": 8731,
      "Blo": 8732,
      "Den": 8733,
      "Fre": 8734,
      "Governor": 8735,
      "Luc": 8736,
      "Op": 8737,
      "Ulysses": 8738,
      "aque": 8739,
      "cement": 8740,
      "dit": 8741,
      "eur": 8742,
      "eph": 8743,
      "gates": 8744,
      "iability": 8745,
      "nab": 8746,
      "rick": 8747,
      "sider": 8748,
      "trol": 8749,
      "uousness": 8750,
      "vid": 8751,
      "vass": 8752,
      "arial": 8753,
      "arach": 8754,
      "unusual": 8755,
      "usions": 8756,
      "plur": 8757,
      "antir": 8758,
      "excess": 8759,
      "oglo": 8760,
      "osper": 8761,
      "ostomy": 8762,
      "ocol": 8763,
      "asted": 8764,
      "outing": 8765,
      "brill": 8766,
      "aching": 8767,
      "Instead": 8768,
      "intend": 8769,
      "missed": 8770,
      "oking": 8771,
      "Chap": 8772,
      "Chart": 8773,
      "Chains": 8774,
      "amped": 8775,
      "regional": 8776,
      "ieties": 8777,
      "depicted": 8778,
      "volcan": 8779,
      "biography": 8780,
      "copper": 8781,
      "classical": 8782,
      "southeast": 8783,
      "atress": 8784,
      "cule": 8785,
      "hoped": 8786,
      "involvement": 8787,
      "1936": 8788,
      "settled": 8789,
      "teles": 8790,
      "focused": 8791,
      "regularly": 8792,
      "survived": 8793,
      "hypnot": 8794,
      "threatened": 8795,
      "Development": 8796,
      "rendered": 8797,
      "vehicles": 8798,
      "converted": 8799,
      "pharmac": 8800,
      "reputation": 8801,
      "acknowled": 8802,
      "MacLeod": 8803,
      "?’": 8804,
      "Aer": 8805,
      "CD": 8806,
      "DS": 8807,
      "Isl": 8808,
      "Jeff": 8809,
      "Men": 8810,
      "NS": 8811,
      "Sus": 8812,
      "ao": 8813,
      "bion": 8814,
      "kits": 8815,
      "lang": 8816,
      "taught": 8817,
      "yt": 8818,
      "chiro": 8819,
      "omeness": 8820,
      "conven": 8821,
      "aping": 8822,
      "coag": 8823,
      "esty": 8824,
      "opic": 8825,
      "illumin": 8826,
      "nondis": 8827,
      "therapy": 8828,
      "crest": 8829,
      "ouring": 8830,
      "mode": 8831,
      "bern": 8832,
      "brace": 8833,
      "lix": 8834,
      "hyg": 8835,
      "rets": 8836,
      "finishing": 8837,
      "pyc": 8838,
      "supplies": 8839,
      "cules": 8840,
      "humor": 8841,
      "denied": 8842,
      "16th": 8843,
      "liner": 8844,
      "haul": 8845,
      "classes": 8846,
      "classic": 8847,
      "1973": 8848,
      "streak": 8849,
      "Board": 8850,
      "agonal": 8851,
      "concerned": 8852,
      "waiting": 8853,
      "machin": 8854,
      "enchy": 8855,
      "employment": 8856,
      "Admir": 8857,
      "investment": 8858,
      "baseball": 8859,
      "recip": 8860,
      "ophilous": 8861,
      "rubber": 8862,
      "benefic": 8863,
      "pneumat": 8864,
      "glutin": 8865,
      "academic": 8866,
      "duties": 8867,
      "segment": 8868,
      "franchise": 8869,
      "churches": 8870,
      "Baby": 8871,
      "municipal": 8872,
      "Anthony": 8873,
      "Aston": 8874,
      "Gre": 8875,
      "Iguan": 8876,
      "Life": 8877,
      "Phill": 8878,
      "baw": 8879,
      "fate": 8880,
      "grown": 8881,
      "jing": 8882,
      "lamin": 8883,
      "ocele": 8884,
      "rie": 8885,
      "tis": 8886,
      "torn": 8887,
      "uity": 8888,
      "inally": 8889,
      "anag": 8890,
      "ario": 8891,
      "unes": 8892,
      "unsub": 8893,
      "united": 8894,
      "roit": 8895,
      "lem": 8896,
      "aciousness": 8897,
      "elastic": 8898,
      "istan": 8899,
      "utive": 8900,
      "Theatre": 8901,
      "coma": 8902,
      "tear": 8903,
      "oneph": 8904,
      "blank": 8905,
      "anged": 8906,
      "syr": 8907,
      "feas": 8908,
      "airport": 8909,
      "axes": 8910,
      "venom": 8911,
      "demol": 8912,
      "Commit": 8913,
      "ballo": 8914,
      "storyline": 8915,
      "bulk": 8916,
      "falling": 8917,
      "1967": 8918,
      "streets": 8919,
      "phenyl": 8920,
      "advice": 8921,
      "ocyan": 8922,
      "sector": 8923,
      "wearing": 8924,
      "treaty": 8925,
      "earthquake": 8926,
      "smoke": 8927,
      "spaces": 8928,
      "AAF": 8929,
      "extremely": 8930,
      "substantial": 8931,
      "110": 8932,
      "59": 8933,
      "Les": 8934,
      "Mov": 8935,
      "Ron": 8936,
      "Ul": 8937,
      "bend": 8938,
      "gross": 8939,
      "rent": 8940,
      "uninter": 8941,
      "roots": 8942,
      "leon": 8943,
      "stig": 8944,
      "chie": 8945,
      "chev": 8946,
      "accompany": 8947,
      "amaz": 8948,
      "idents": 8949,
      "urity": 8950,
      "seal": 8951,
      "abe": 8952,
      "trian": 8953,
      "agr": 8954,
      "usur": 8955,
      "versy": 8956,
      "embro": 8957,
      "poetic": 8958,
      "sugar": 8959,
      "prono": 8960,
      "explan": 8961,
      "commen": 8962,
      "osome": 8963,
      "optic": 8964,
      "ibi": 8965,
      "crum": 8966,
      "asting": 8967,
      "ells": 8968,
      "1914": 8969,
      "stral": 8970,
      "bris": 8971,
      "afric": 8972,
      "inted": 8973,
      "evangel": 8974,
      "fertil": 8975,
      "parties": 8976,
      "glades": 8977,
      "ixes": 8978,
      "calam": 8979,
      "normally": 8980,
      "supposed": 8981,
      "sket": 8982,
      "breed": 8983,
      "Asia": 8984,
      "solic": 8985,
      "expensive": 8986,
      "vention": 8987,
      "talks": 8988,
      "hydros": 8989,
      "predecess": 8990,
      "penalty": 8991,
      "profit": 8992,
      "arianism": 8993,
      "virtu": 8994,
      "hemi": 8995,
      "believes": 8996,
      "burned": 8997,
      "references": 8998,
      "thinking": 8999,
      "doctr": 9000,
      "funding": 9001,
      "railway": 9002,
      "Mountain": 9003,
      "literary": 9004,
      "forcing": 9005,
      "taste": 9006,
      "authent": 9007,
      "1930s": 9008,
      "Colonel": 9009,
      "AML": 9010,
      "Anonymous": 9011,
      "Braz": 9012,
      "Dota": 9013,
      "Ode": 9014,
      "Summer": 9015,
      "cia": 9016,
      "dess": 9017,
      "dimin": 9018,
      "danger": 9019,
      "echo": 9020,
      "hr": 9021,
      "jury": 9022,
      "kor": 9023,
      "kings": 9024,
      "lung": 9025,
      "mend": 9026,
      "nch": 9027,
      "nutr": 9028,
      "oec": 9029,
      "pill": 9030,
      "pard": 9031,
      "ptom": 9032,
      "vation": 9033,
      "wret": 9034,
      "anthem": 9035,
      "esi": 9036,
      "atist": 9037,
      "theolog": 9038,
      "unal": 9039,
      "releg": 9040,
      "routes": 9041,
      "toad": 9042,
      "stain": 9043,
      "static": 9044,
      "acles": 9045,
      "abber": 9046,
      "imit": 9047,
      "impl": 9048,
      "ige": 9049,
      "emark": 9050,
      "pots": 9051,
      "conform": 9052,
      "sube": 9053,
      "coy": 9054,
      "aval": 9055,
      "quir": 9056,
      "rax": 9057,
      "rometer": 9058,
      "keen": 9059,
      "asses": 9060,
      "stress": 9061,
      "gee": 9062,
      "disen": 9063,
      "epil": 9064,
      "epist": 9065,
      "parish": 9066,
      "dece": 9067,
      "geny": 9068,
      "offense": 9069,
      "relative": 9070,
      "regime": 9071,
      "inkle": 9072,
      "caus": 9073,
      "ushed": 9074,
      "useful": 9075,
      "motiv": 9076,
      "justice": 9077,
      "wright": 9078,
      "anchor": 9079,
      "Caribbean": 9080,
      "carrying": 9081,
      "digit": 9082,
      "settlers": 9083,
      "consisting": 9084,
      "fatal": 9085,
      "neglect": 9086,
      "cousin": 9087,
      "pocket": 9088,
      "Douglas": 9089,
      "Hornung": 9090,
      "anthropo": 9091,
      "overeign": 9092,
      "Chelsea": 9093,
      "Bur": 9094,
      "ERA": 9095,
      "Kil": 9096,
      "Mill": 9097,
      "Master": 9098,
      "WA": 9099,
      "duct": 9100,
      "ea": 9101,
      "ien": 9102,
      "jou": 9103,
      "jig": 9104,
      "kam": 9105,
      "lut": 9106,
      "mog": 9107,
      "muc": 9108,
      "sak": 9109,
      "ylo": 9110,
      "ía": 9111,
      "erry": 9112,
      "onate": 9113,
      "atri": 9114,
      "unr": 9115,
      "ingale": 9116,
      "oub": 9117,
      "chess": 9118,
      "elin": 9119,
      "entness": 9120,
      "heim": 9121,
      "impossible": 9122,
      "tria": 9123,
      "trach": 9124,
      "truck": 9125,
      "phae": 9126,
      "agents": 9127,
      "ems": 9128,
      "emble": 9129,
      "congreg": 9130,
      "antit": 9131,
      "quot": 9132,
      "exts": 9133,
      "owing": 9134,
      "opposite": 9135,
      "aree": 9136,
      "peg": 9137,
      "lows": 9138,
      "icky": 9139,
      "condens": 9140,
      "axon": 9141,
      "posted": 9142,
      "renamed": 9143,
      "losis": 9144,
      "unners": 9145,
      "volat": 9146,
      "podous": 9147,
      "snake": 9148,
      "1945": 9149,
      "1971": 9150,
      "analog": 9151,
      "looks": 9152,
      "europ": 9153,
      "occurs": 9154,
      "completion": 9155,
      "commanded": 9156,
      "crossed": 9157,
      "Perry": 9158,
      "watching": 9159,
      "cruiser": 9160,
      "accounts": 9161,
      "emerged": 9162,
      "Maeda": 9163,
      "rhythm": 9164,
      "pistol": 9165,
      "Cardinal": 9166,
      "vessel": 9167,
      "noisy": 9168,
      "Constantine": 9169,
      "Shortly": 9170,
      "Hibari": 9171,
      "Lieutenant": 9172,
      "issippi": 9173,
      "Age": 9174,
      "Bri": 9175,
      "Broad": 9176,
      "Blu": 9177,
      "Brook": 9178,
      "Han": 9179,
      "Jud": 9180,
      "Qedar": 9181,
      "Sc": 9182,
      "Who": 9183,
      "bree": 9184,
      "dwar": 9185,
      "ether": 9186,
      "fuel": 9187,
      "governor": 9188,
      "lup": 9189,
      "nim": 9190,
      "nip": 9191,
      "nell": 9192,
      "pang": 9193,
      "pens": 9194,
      "sunk": 9195,
      "vib": 9196,
      "wol": 9197,
      "wings": 9198,
      "inia": 9199,
      "indis": 9200,
      "anite": 9201,
      "enia": 9202,
      "orh": 9203,
      "asic": 9204,
      "asthen": 9205,
      "rept": 9206,
      "revers": 9207,
      "stum": 9208,
      "stalk": 9209,
      "enters": 9210,
      "triv": 9211,
      "apolog": 9212,
      "utor": 9213,
      "prospect": 9214,
      "osities": 9215,
      "ishers": 9216,
      "nebul": 9217,
      "hymn": 9218,
      "peopl": 9219,
      "awed": 9220,
      "herd": 9221,
      "interpre": 9222,
      "serpent": 9223,
      "monoc": 9224,
      "evo": 9225,
      "ilet": 9226,
      "mercur": 9227,
      "ucture": 9228,
      "mini": 9229,
      "enesses": 9230,
      "visions": 9231,
      "iki": 9232,
      "opers": 9233,
      "renov": 9234,
      "zoic": 9235,
      "balance": 9236,
      "showing": 9237,
      "aska": 9238,
      "Lee": 9239,
      "1982": 9240,
      "egg": 9241,
      "casting": 9242,
      "describing": 9243,
      "repair": 9244,
      "oplast": 9245,
      "ascend": 9246,
      "Georgian": 9247,
      "Romani": 9248,
      "moments": 9249,
      "ruli": 9250,
      "coastal": 9251,
      "arrangement": 9252,
      "iparous": 9253,
      "attracted": 9254,
      "noble": 9255,
      "Golden": 9256,
      "Sound": 9257,
      "narrative": 9258,
      "portrayed": 9259,
      "attributed": 9260,
      "tyrann": 9261,
      "Fantasy": 9262,
      "convinced": 9263,
      "circumstances": 9264,
      "adjacent": 9265,
      "52": 9266,
      "66": 9267,
      "72": 9268,
      "Bond": 9269,
      "DNA": 9270,
      "Every": 9271,
      "IG": 9272,
      "Moz": 9273,
      "Oslo": 9274,
      "Rio": 9275,
      "Tu": 9276,
      "aic": 9277,
      "bail": 9278,
      "blot": 9279,
      "cite": 9280,
      "cuc": 9281,
      "eul": 9282,
      "fag": 9283,
      "gill": 9284,
      "giant": 9285,
      "kiss": 9286,
      "liver": 9287,
      "nap": 9288,
      "sale": 9289,
      "saint": 9290,
      "tachy": 9291,
      "xiph": 9292,
      "eras": 9293,
      "erick": 9294,
      "thong": 9295,
      "onna": 9296,
      "alumin": 9297,
      "isch": 9298,
      "asal": 9299,
      "uri": 9300,
      "trace": 9301,
      "users": 9302,
      "suf": 9303,
      "degre": 9304,
      "prize": 9305,
      "oscopic": 9306,
      "1916": 9307,
      "1913": 9308,
      "ieth": 9309,
      "boo": 9310,
      "rescu": 9311,
      "ighted": 9312,
      "affin": 9313,
      "wore": 9314,
      "internal": 9315,
      "fred": 9316,
      "ilely": 9317,
      "fires": 9318,
      "imetric": 9319,
      "ugos": 9320,
      "ophone": 9321,
      "Stadium": 9322,
      "tops": 9323,
      "tedly": 9324,
      "ennes": 9325,
      "linear": 9326,
      "signal": 9327,
      "albumin": 9328,
      "harsh": 9329,
      "homo": 9330,
      "homoe": 9331,
      "circuit": 9332,
      "scratch": 9333,
      "treated": 9334,
      "holiday": 9335,
      "1980": 9336,
      "camps": 9337,
      "1976": 9338,
      "trading": 9339,
      "characteristics": 9340,
      "Conserv": 9341,
      "icula": 9342,
      "kingdom": 9343,
      "secular": 9344,
      "thrust": 9345,
      "1956": 9346,
      "admitted": 9347,
      "oplastic": 9348,
      "mountains": 9349,
      "despair": 9350,
      "charts": 9351,
      "golden": 9352,
      "discussed": 9353,
      "Haiti": 9354,
      "otropism": 9355,
      "distributed": 9356,
      "beauty": 9357,
      "behaviour": 9358,
      "dollars": 9359,
      "dismissed": 9360,
      "scholars": 9361,
      "Radio": 9362,
      "Secretary": 9363,
      "250": 9364,
      "DA": 9365,
      "Pers": 9366,
      "Pho": 9367,
      "Row": 9368,
      "Sunday": 9369,
      "VN": 9370,
      "Venus": 9371,
      "craw": 9372,
      "font": 9373,
      "hav": 9374,
      "pp": 9375,
      "yon": 9376,
      "unlike": 9377,
      "reck": 9378,
      "rection": 9379,
      "replacement": 9380,
      "itively": 9381,
      "ila": 9382,
      "elt": 9383,
      "ulant": 9384,
      "igne": 9385,
      "ott": 9386,
      "otal": 9387,
      "couns": 9388,
      "dean": 9389,
      "shir": 9390,
      "shield": 9391,
      "exit": 9392,
      "opia": 9393,
      "arding": 9394,
      "hybrid": 9395,
      "obst": 9396,
      "interchange": 9397,
      "driving": 9398,
      "semit": 9399,
      "ificate": 9400,
      "Allied": 9401,
      "skir": 9402,
      "numer": 9403,
      "omaniac": 9404,
      "ennial": 9405,
      "helmet": 9406,
      "10th": 9407,
      "Leon": 9408,
      "pseudos": 9409,
      "1943": 9410,
      "sequently": 9411,
      "imming": 9412,
      "weeds": 9413,
      "quadr": 9414,
      "astronom": 9415,
      "oplasty": 9416,
      "Stevens": 9417,
      "screw": 9418,
      "announc": 9419,
      "recognition": 9420,
      "nomination": 9421,
      "possessed": 9422,
      "joining": 9423,
      "reserve": 9424,
      "drove": 9425,
      "incorporated": 9426,
      "dangerous": 9427,
      "battleship": 9428,
      "intellectual": 9429,
      "Iguanodon": 9430,
      "71": 9431,
      "CO": 9432,
      "Gil": 9433,
      "Gully": 9434,
      "Homer": 9435,
      "Kar": 9436,
      "Len": 9437,
      "Lab": 9438,
      "Pan": 9439,
      "Rox": 9440,
      "Rangers": 9441,
      "Sub": 9442,
      "Square": 9443,
      "bane": 9444,
      "dled": 9445,
      "fy": 9446,
      "lore": 9447,
      "mell": 9448,
      "mism": 9449,
      "mask": 9450,
      "psal": 9451,
      "swell": 9452,
      "sitting": 9453,
      "zin": 9454,
      "innov": 9455,
      "anatom": 9456,
      "onize": 9457,
      "esters": 9458,
      "arbor": 9459,
      "unlo": 9460,
      "reli": 9461,
      "tology": 9462,
      "ilia": 9463,
      "olia": 9464,
      "imon": 9465,
      "trist": 9466,
      "utation": 9467,
      "shaft": 9468,
      "exy": 9469,
      "exor": 9470,
      "exchange": 9471,
      "ianize": 9472,
      "resent": 9473,
      "gren": 9474,
      "lily": 9475,
      "myster": 9476,
      "obtained": 9477,
      "atting": 9478,
      "understanding": 9479,
      "otherwise": 9480,
      "extension": 9481,
      "malle": 9482,
      "warn": 9483,
      "leadership": 9484,
      "successor": 9485,
      "putting": 9486,
      "divor": 9487,
      "1963": 9488,
      "communication": 9489,
      "Australians": 9490,
      "persist": 9491,
      "existed": 9492,
      "measured": 9493,
      "vault": 9494,
      "relationships": 9495,
      "chairman": 9496,
      "saved": 9497,
      "pushed": 9498,
      "apparently": 9499,
      "icolous": 9500,
      "prerog": 9501,
      "Office": 9502,
      "wreck": 9503,
      "chondr": 9504,
      "Everglades": 9505,
      "resource": 9506,
      "Alexander": 9507,
      "opponents": 9508,
      "Hindu": 9509,
      "Additionally": 9510,
      "Morrison": 9511,
      "answered": 9512,
      "Bishop": 9513,
      "IGN": 9514,
      "85": 9515,
      "BS": 9516,
      "Fel": 9517,
      "Gang": 9518,
      "Gram": 9519,
      "Hugh": 9520,
      "Ni": 9521,
      "Our": 9522,
      "cim": 9523,
      "cary": 9524,
      "dactyl": 9525,
      "jap": 9526,
      "lists": 9527,
      "oen": 9528,
      "plo": 9529,
      "tann": 9530,
      "vant": 9531,
      "eses": 9532,
      "ederal": 9533,
      "icorn": 9534,
      "toma": 9535,
      "aders": 9536,
      "hears": 9537,
      "sevent": 9538,
      "imped": 9539,
      "apa": 9540,
      "beak": 9541,
      "pror": 9542,
      "pris": 9543,
      "onger": 9544,
      "brady": 9545,
      "angled": 9546,
      "parap": 9547,
      "intern": 9548,
      "context": 9549,
      "annivers": 9550,
      "inker": 9551,
      "axy": 9552,
      "filtr": 9553,
      "metro": 9554,
      "vener": 9555,
      "extent": 9556,
      "ographies": 9557,
      "singular": 9558,
      "invig": 9559,
      "roller": 9560,
      "posts": 9561,
      "patient": 9562,
      "operate": 9563,
      "operating": 9564,
      "ucky": 9565,
      "zoon": 9566,
      "ruff": 9567,
      "divisions": 9568,
      "iffs": 9569,
      "11th": 9570,
      "attempting": 9571,
      "Hollywood": 9572,
      "liberal": 9573,
      "Within": 9574,
      "digest": 9575,
      "novels": 9576,
      "Mississippi": 9577,
      "walked": 9578,
      "learning": 9579,
      "Montana": 9580,
      "blocks": 9581,
      "Similar": 9582,
      "occasion": 9583,
      "rushed": 9584,
      "departure": 9585,
      "advertis": 9586,
      "dramatic": 9587,
      "fungus": 9588,
      "Bradford": 9589,
      "Archae": 9590,
      "recommended": 9591,
      "Friends": 9592,
      "Daniel": 9593,
      "UTC": 9594,
      "Columbia": 9595,
      "Committee": 9596,
      "69": 9597,
      "Bern": 9598,
      "Gi": 9599,
      "Holy": 9600,
      "Let": 9601,
      "Native": 9602,
      "bun": 9603,
      "bund": 9604,
      "dian": 9605,
      "dign": 9606,
      "gé": 9607,
      "jillo": 9608,
      "tac": 9609,
      "uer": 9610,
      "inspect": 9611,
      "anab": 9612,
      "enary": 9613,
      "alve": 9614,
      "theatre": 9615,
      "stad": 9616,
[...]
